<unk>	0
<s>	1
</s>	2
<SEP>	3
<CLS>	4

	5
		6
<h2>	7
<h2/>	8
</h2>	9
<br>	10
<br/>	11
</br>	12
<strong>	13
<strong/>	14
</strong>	15
<h1>	16
<h1/>	17
</h1>	18
<p>	19
<p/>	20
</p>	21
<h5>	22
<h5/>	23
</h5>	24
<h3>	25
<h3/>	26
</h3>	27
<table>	28
<table/>	29
</table>	30
<li>	31
<li/>	32
</li>	33
<tr>	34
<tr/>	35
</tr>	36
<h4>	37
<h4/>	38
</h4>	39
<tbody>	40
<tbody/>	41
</tbody>	42
<img>	43
<img/>	44
</img>	45
<b>	46
<b/>	47
</b>	48
<td>	49
<td/>	50
</td>	51
0	52
1	53
2	54
3	55
4	56
5	57
6	58
7	59
8	60
9	61
０	62
１	63
２	64
３	65
４	66
５	67
６	68
７	69
８	70
９	71
，	72
。	73
！	74
？	75
、	76
：	77
￥	78
.	79
!	80
?	81
《	82
》	83
【	84
】	85
『	86
』	87
```	88
<!--	89
-->	90
---	91
<!DOCTYPE>	92
▁▁▁▁▁▁▁▁▁▁▁▁▁▁▁▁	93
▁▁▁▁▁▁▁▁▁▁▁▁	94
▁▁▁▁▁▁▁▁	95
▁▁▁▁▁	96
▁▁▁▁	97
▁▁▁	98
▁▁	99
<reserved_7>	100
<reserved_8>	101
<reserved_9>	102
<reserved_10>	103
<reserved_11>	104
<reserved_12>	105
<reserved_13>	106
<reserved_14>	107
<reserved_15>	108
<reserved_16>	109
<reserved_17>	110
<reserved_18>	111
<reserved_19>	112
<reserved_20>	113
<reserved_21>	114
<reserved_22>	115
<reserved_23>	116
<reserved_24>	117
<reserved_25>	118
<reserved_26>	119
<reserved_27>	120
<reserved_28>	121
<reserved_29>	122
<reserved_30>	123
<reserved_31>	124
<reserved_32>	125
<reserved_33>	126
<reserved_34>	127
<reserved_35>	128
<reserved_36>	129
<reserved_37>	130
<reserved_38>	131
<reserved_39>	132
<reserved_40>	133
<reserved_41>	134
<reserved_42>	135
<reserved_43>	136
<reserved_44>	137
<reserved_45>	138
<reserved_46>	139
<reserved_47>	140
<reserved_48>	141
<reserved_49>	142
<reserved_50>	143
<reserved_51>	144
<reserved_52>	145
<reserved_53>	146
<reserved_54>	147
<reserved_55>	148
<reserved_56>	149
<reserved_57>	150
<reserved_58>	151
<reserved_59>	152
<reserved_60>	153
<reserved_61>	154
<reserved_62>	155
<reserved_63>	156
<reserved_64>	157
<reserved_65>	158
<reserved_66>	159
<reserved_67>	160
<reserved_68>	161
<reserved_69>	162
<reserved_70>	163
<reserved_71>	164
<reserved_72>	165
<reserved_73>	166
<reserved_74>	167
<reserved_75>	168
<reserved_76>	169
<reserved_77>	170
<reserved_78>	171
<reserved_79>	172
<reserved_80>	173
<reserved_81>	174
<reserved_82>	175
<reserved_83>	176
<reserved_84>	177
<reserved_85>	178
<reserved_86>	179
<reserved_87>	180
<reserved_88>	181
<reserved_89>	182
<reserved_90>	183
<reserved_91>	184
<reserved_92>	185
<reserved_93>	186
<reserved_94>	187
<reserved_95>	188
<reserved_96>	189
<reserved_97>	190
<reserved_98>	191
<reserved_99>	192
<reserved_100>	193
<reserved_101>	194
<reserved_102>	195
<reserved_103>	196
<reserved_104>	197
<reserved_105>	198
<reserved_106>	199
<reserved_107>	200
<reserved_108>	201
<reserved_109>	202
<reserved_110>	203
<reserved_111>	204
<reserved_112>	205
<reserved_113>	206
<reserved_114>	207
<reserved_115>	208
<reserved_116>	209
<reserved_117>	210
<reserved_118>	211
<reserved_119>	212
<reserved_120>	213
<reserved_121>	214
<reserved_122>	215
<reserved_123>	216
<reserved_124>	217
<reserved_125>	218
<reserved_126>	219
<reserved_127>	220
<reserved_128>	221
<reserved_129>	222
<reserved_130>	223
<reserved_131>	224
<reserved_132>	225
<reserved_133>	226
<reserved_134>	227
<reserved_135>	228
<reserved_136>	229
<reserved_137>	230
<reserved_138>	231
<reserved_139>	232
<reserved_140>	233
<reserved_141>	234
<reserved_142>	235
<reserved_143>	236
<reserved_144>	237
<reserved_145>	238
<reserved_146>	239
<reserved_147>	240
<reserved_148>	241
<reserved_149>	242
<reserved_150>	243
<reserved_151>	244
<reserved_152>	245
<reserved_153>	246
<reserved_154>	247
<reserved_155>	248
<reserved_156>	249
<reserved_157>	250
<reserved_158>	251
<reserved_159>	252
<reserved_160>	253
<reserved_161>	254
<reserved_162>	255
<reserved_163>	256
<reserved_164>	257
<reserved_165>	258
<reserved_166>	259
<reserved_167>	260
<reserved_168>	261
<reserved_169>	262
<reserved_170>	263
<reserved_171>	264
<reserved_172>	265
<reserved_173>	266
<reserved_174>	267
<reserved_175>	268
<reserved_176>	269
<reserved_177>	270
<reserved_178>	271
<reserved_179>	272
<reserved_180>	273
<reserved_181>	274
<reserved_182>	275
<reserved_183>	276
<reserved_184>	277
<reserved_185>	278
<reserved_186>	279
<reserved_187>	280
<reserved_188>	281
<reserved_189>	282
<reserved_190>	283
<reserved_191>	284
<reserved_192>	285
<reserved_193>	286
<reserved_194>	287
<reserved_195>	288
<reserved_196>	289
<reserved_197>	290
<reserved_198>	291
<reserved_199>	292
<reserved_200>	293
<reserved_201>	294
<reserved_202>	295
<reserved_203>	296
<reserved_204>	297
<reserved_205>	298
<reserved_206>	299
<reserved_207>	300
<reserved_208>	301
<reserved_209>	302
<reserved_210>	303
<reserved_211>	304
<reserved_212>	305
<reserved_213>	306
<reserved_214>	307
<reserved_215>	308
<reserved_216>	309
<reserved_217>	310
<reserved_218>	311
<reserved_219>	312
<reserved_220>	313
<reserved_221>	314
<reserved_222>	315
<reserved_223>	316
<reserved_224>	317
<reserved_225>	318
<reserved_226>	319
<reserved_227>	320
<reserved_228>	321
<reserved_229>	322
<reserved_230>	323
<reserved_231>	324
<reserved_232>	325
<reserved_233>	326
<reserved_234>	327
<reserved_235>	328
<reserved_236>	329
<reserved_237>	330
<reserved_238>	331
<reserved_239>	332
<reserved_240>	333
<reserved_241>	334
<reserved_242>	335
<reserved_243>	336
<reserved_244>	337
<reserved_245>	338
<reserved_246>	339
<reserved_247>	340
<reserved_248>	341
<reserved_249>	342
<reserved_250>	343
<reserved_251>	344
<reserved_252>	345
<reserved_253>	346
<reserved_254>	347
<reserved_255>	348
<reserved_256>	349
<reserved_257>	350
<reserved_258>	351
<reserved_259>	352
<reserved_260>	353
<reserved_261>	354
<reserved_262>	355
<reserved_263>	356
<reserved_264>	357
<reserved_265>	358
<reserved_266>	359
<reserved_267>	360
<reserved_268>	361
<reserved_269>	362
<reserved_270>	363
<reserved_271>	364
<reserved_272>	365
<reserved_273>	366
<reserved_274>	367
<reserved_275>	368
<reserved_276>	369
<reserved_277>	370
<reserved_278>	371
<reserved_279>	372
<reserved_280>	373
<reserved_281>	374
<reserved_282>	375
<reserved_283>	376
<reserved_284>	377
<reserved_285>	378
<reserved_286>	379
<reserved_287>	380
<reserved_288>	381
<reserved_289>	382
<reserved_290>	383
<reserved_291>	384
<reserved_292>	385
<reserved_293>	386
<reserved_294>	387
<reserved_295>	388
<reserved_296>	389
<reserved_297>	390
<reserved_298>	391
<reserved_299>	392
<0x00>	393
<0x01>	394
<0x02>	395
<0x03>	396
<0x04>	397
<0x05>	398
<0x06>	399
<0x07>	400
<0x08>	401
<0x09>	402
<0x0A>	403
<0x0B>	404
<0x0C>	405
<0x0D>	406
<0x0E>	407
<0x0F>	408
<0x10>	409
<0x11>	410
<0x12>	411
<0x13>	412
<0x14>	413
<0x15>	414
<0x16>	415
<0x17>	416
<0x18>	417
<0x19>	418
<0x1A>	419
<0x1B>	420
<0x1C>	421
<0x1D>	422
<0x1E>	423
<0x1F>	424
<0x20>	425
<0x21>	426
<0x22>	427
<0x23>	428
<0x24>	429
<0x25>	430
<0x26>	431
<0x27>	432
<0x28>	433
<0x29>	434
<0x2A>	435
<0x2B>	436
<0x2C>	437
<0x2D>	438
<0x2E>	439
<0x2F>	440
<0x30>	441
<0x31>	442
<0x32>	443
<0x33>	444
<0x34>	445
<0x35>	446
<0x36>	447
<0x37>	448
<0x38>	449
<0x39>	450
<0x3A>	451
<0x3B>	452
<0x3C>	453
<0x3D>	454
<0x3E>	455
<0x3F>	456
<0x40>	457
<0x41>	458
<0x42>	459
<0x43>	460
<0x44>	461
<0x45>	462
<0x46>	463
<0x47>	464
<0x48>	465
<0x49>	466
<0x4A>	467
<0x4B>	468
<0x4C>	469
<0x4D>	470
<0x4E>	471
<0x4F>	472
<0x50>	473
<0x51>	474
<0x52>	475
<0x53>	476
<0x54>	477
<0x55>	478
<0x56>	479
<0x57>	480
<0x58>	481
<0x59>	482
<0x5A>	483
<0x5B>	484
<0x5C>	485
<0x5D>	486
<0x5E>	487
<0x5F>	488
<0x60>	489
<0x61>	490
<0x62>	491
<0x63>	492
<0x64>	493
<0x65>	494
<0x66>	495
<0x67>	496
<0x68>	497
<0x69>	498
<0x6A>	499
<0x6B>	500
<0x6C>	501
<0x6D>	502
<0x6E>	503
<0x6F>	504
<0x70>	505
<0x71>	506
<0x72>	507
<0x73>	508
<0x74>	509
<0x75>	510
<0x76>	511
<0x77>	512
<0x78>	513
<0x79>	514
<0x7A>	515
<0x7B>	516
<0x7C>	517
<0x7D>	518
<0x7E>	519
<0x7F>	520
<0x80>	521
<0x81>	522
<0x82>	523
<0x83>	524
<0x84>	525
<0x85>	526
<0x86>	527
<0x87>	528
<0x88>	529
<0x89>	530
<0x8A>	531
<0x8B>	532
<0x8C>	533
<0x8D>	534
<0x8E>	535
<0x8F>	536
<0x90>	537
<0x91>	538
<0x92>	539
<0x93>	540
<0x94>	541
<0x95>	542
<0x96>	543
<0x97>	544
<0x98>	545
<0x99>	546
<0x9A>	547
<0x9B>	548
<0x9C>	549
<0x9D>	550
<0x9E>	551
<0x9F>	552
<0xA0>	553
<0xA1>	554
<0xA2>	555
<0xA3>	556
<0xA4>	557
<0xA5>	558
<0xA6>	559
<0xA7>	560
<0xA8>	561
<0xA9>	562
<0xAA>	563
<0xAB>	564
<0xAC>	565
<0xAD>	566
<0xAE>	567
<0xAF>	568
<0xB0>	569
<0xB1>	570
<0xB2>	571
<0xB3>	572
<0xB4>	573
<0xB5>	574
<0xB6>	575
<0xB7>	576
<0xB8>	577
<0xB9>	578
<0xBA>	579
<0xBB>	580
<0xBC>	581
<0xBD>	582
<0xBE>	583
<0xBF>	584
<0xC0>	585
<0xC1>	586
<0xC2>	587
<0xC3>	588
<0xC4>	589
<0xC5>	590
<0xC6>	591
<0xC7>	592
<0xC8>	593
<0xC9>	594
<0xCA>	595
<0xCB>	596
<0xCC>	597
<0xCD>	598
<0xCE>	599
<0xCF>	600
<0xD0>	601
<0xD1>	602
<0xD2>	603
<0xD3>	604
<0xD4>	605
<0xD5>	606
<0xD6>	607
<0xD7>	608
<0xD8>	609
<0xD9>	610
<0xDA>	611
<0xDB>	612
<0xDC>	613
<0xDD>	614
<0xDE>	615
<0xDF>	616
<0xE0>	617
<0xE1>	618
<0xE2>	619
<0xE3>	620
<0xE4>	621
<0xE5>	622
<0xE6>	623
<0xE7>	624
<0xE8>	625
<0xE9>	626
<0xEA>	627
<0xEB>	628
<0xEC>	629
<0xED>	630
<0xEE>	631
<0xEF>	632
<0xF0>	633
<0xF1>	634
<0xF2>	635
<0xF3>	636
<0xF4>	637
<0xF5>	638
<0xF6>	639
<0xF7>	640
<0xF8>	641
<0xF9>	642
<0xFA>	643
<0xFB>	644
<0xFC>	645
<0xFD>	646
<0xFE>	647
<0xFF>	648
▁t	649
▁a	650
in	651
he	652
er	653
on	654
re	655
▁the	656
▁s	657
at	658
or	659
en	660
▁w	661
an	662
es	663
it	664
▁c	665
▁o	666
is	667
▁f	668
ing	669
nd	670
ed	671
al	672
▁p	673
ou	674
▁b	675
ar	676
▁in	677
▁to	678
▁of	679
▁and	680
▁m	681
ic	682
▁d	683
ion	684
as	685
le	686
om	687
▁h	688
ent	689
il	690
▁th	691
ro	692
st	693
▁S	694
el	695
▁re	696
▁l	697
ct	698
▁n	699
et	700
▁T	701
▁C	702
▁A	703
▁e	704
id	705
▁g	706
ve	707
▁I	708
ol	709
ut	710
am	711
ur	712
▁for	713
ot	714
▁is	715
ay	716
▁on	717
▁M	718
ad	719
ac	720
▁y	721
ow	722
ig	723
im	724
ly	725
us	726
▁be	727
ation	728
ver	729
▁P	730
▁B	731
▁st	732
ir	733
ith	734
ch	735
▁that	736
ce	737
ter	738
▁you	739
▁with	740
un	741
▁he	742
▁D	743
ul	744
▁H	745
ers	746
▁it	747
▁W	748
ill	749
▁F	750
▁R	751
ag	752
se	753
▁as	754
▁an	755
▁al	756
em	757
est	758
▁wh	759
▁pro	760
if	761
▁(	762
▁L	763
ra	764
ri	765
▁con	766
▁N	767
ew	768
and	769
th	770
op	771
▁at	772
ist	773
ate	774
▁com	775
▁The	776
od	777
▁G	778
her	779
ess	780
▁E	781
▁are	782
pp	783
um	784
ke	785
ore	786
ab	787
ity	788
rom	789
▁v	790
ld	791
▁de	792
ort	793
igh	794
res	795
▁was	796
oc	797
▁ex	798
ment	799
▁ha	800
os	801
▁or	802
▁se	803
ies	804
qu	805
art	806
ant	807
▁r	808
▁J	809
▁by	810
▁O	811
▁from	812
ain	813
ect	814
ust	815
ive	816
iv	817
▁we	818
ud	819
our	820
ear	821
▁su	822
end	823
all	824
▁ch	825
ard	826
▁have	827
▁this	828
The	829
▁sh	830
nt	831
ight	832
▁U	833
ial	834
▁u	835
out	836
ost	837
▁wor	838
▁le	839
▁not	840
▁has	841
▁will	842
rou	843
ast	844
ure	845
▁pl	846
▁us	847
ell	848
ome	849
ge	850
ack	851
og	852
ak	853
ok	854
ap	855
▁can	856
ine	857
gh	858
▁sp	859
▁ab	860
are	861
ould	862
ia	863
▁j	864
ec	865
ip	866
▁St	867
ber	868
ff	869
ice	870
ide	871
ich	872
▁K	873
ions	874
per	875
age	876
▁all	877
pt	878
▁your	879
▁comp	880
ire	881
ong	882
ry	883
▁In	884
▁ad	885
ans	886
ub	887
▁k	888
▁“	889
▁sa	890
ated	891
▁go	892
ie	893
▁en	894
▁whe	895
ame	896
cc	897
ary	898
ally	899
▁their	900
ther	901
ue	902
▁V	903
▁his	904
▁cl	905
ind	906
pl	907
orm	908
iz	909
ous	910
ook	911
▁do	912
▁ne	913
able	914
▁but	915
ass	916
cl	917
▁out	918
▁more	919
act	920
ep	921
ime	922
▁im	923
ence	924
▁cont	925
one	926
ult	927
so	928
▁Ch	929
▁up	930
ake	931
▁Th	932
ace	933
▁un	934
ance	935
▁who	936
▁they	937
▁tr	938
ations	939
▁year	940
▁me	941
ign	942
du	943
ord	944
▁int	945
ib	946
▁work	947
▁new	948
▁te	949
ail	950
very	951
ite	952
▁res	953
▁which	954
av	955
▁one	956
▁Y	957
ents	958
ase	959
▁man	960
ark	961
▁our	962
▁about	963
ach	964
ical	965
▁"	966
vel	967
▁off	968
ount	969
ere	970
ile	971
▁so	972
ction	973
erv	974
port	975
▁app	976
ru	977
form	978
ays	979
ond	980
▁per	981
▁also	982
▁-	983
▁ar	984
mer	985
ll	986
ick	987
vers	988
▁said	989
ov	990
reat	991
▁li	992
▁part	993
ob	994
ors	995
own	996
▁its	997
ition	998
▁been	999
ress	1000
ory	1001
ild	1002
ian	1003
ree	1004
▁qu	1005
▁ag	1006
▁dis	1007
▁other	1008
int	1009
lic	1010
▁ev	1011
ely	1012
ose	1013
▁rec	1014
ens	1015
ings	1016
ound	1017
ang	1018
▁sc	1019
▁her	1020
ish	1021
▁over	1022
irst	1023
ne	1024
▁It	1025
▁pe	1026
▁were	1027
▁time	1028
▁pre	1029
te	1030
▁my	1031
▁ro	1032
oy	1033
ks	1034
▁inter	1035
fter	1036
fer	1037
ove	1038
com	1039
▁get	1040
ople	1041
▁had	1042
wo	1043
▁acc	1044
▁than	1045
ric	1046
old	1047
oll	1048
anc	1049
wn	1050
clud	1051
▁comm	1052
▁some	1053
▁when	1054
▁them	1055
▁would	1056
▁He	1057
▁any	1058
▁there	1059
ool	1060
ates	1061
▁Un	1062
ade	1063
▁kn	1064
rit	1065
ational	1066
▁like	1067
ough	1068
rough	1069
use	1070
▁$	1071
▁first	1072
▁–	1073
ning	1074
hed	1075
nder	1076
ons	1077
enc	1078
iew	1079
ng	1080
▁into	1081
▁people	1082
ater	1083
ram	1084
xt	1085
aw	1086
▁if	1087
amp	1088
ont	1089
ph	1090
ss	1091
▁fe	1092
ood	1093
▁des	1094
▁what	1095
▁am	1096
ject	1097
),	1098
▁just	1099
ual	1100
iss	1101
▁We	1102
ious	1103
▁includ	1104
▁Re	1105
day	1106
ink	1107
pe	1108
lect	1109
ities	1110
▁she	1111
▁how	1112
▁New	1113
urn	1114
ft	1115
▁need	1116
▁prov	1117
▁bec	1118
we	1119
▁ind	1120
▁add	1121
les	1122
▁no	1123
ck	1124
pport	1125
In	1126
▁Com	1127
▁after	1128
▁most	1129
▁years	1130
ident	1131
▁two	1132
round	1133
ath	1134
▁co	1135
▁act	1136
▁serv	1137
lp	1138
▁&	1139
▁through	1140
ward	1141
▁play	1142
ts	1143
olog	1144
any	1145
▁bu	1146
▁=	1147
ise	1148
▁em	1149
ublic	1150
▁bet	1151
▁under	1152
tt	1153
ful	1154
▁help	1155
▁inv	1156
ating	1157
als	1158
row	1159
▁stud	1160
get	1161
▁only	1162
ife	1163
ock	1164
li	1165
red	1166
ork	1167
▁produ	1168
hip	1169
▁This	1170
▁cons	1171
▁bl	1172
ivers	1173
Th	1174
ific	1175
pect	1176
ting	1177
▁att	1178
hen	1179
und	1180
ased	1181
▁imp	1182
▁reg	1183
▁Pro	1184
,”	1185
▁De	1186
arch	1187
yst	1188
▁back	1189
ics	1190
io	1191
uring	1192
ert	1193
iness	1194
ily	1195
chool	1196
一个	1197
ek	1198
ited	1199
▁make	1200
ause	1201
velop	1202
▁well	1203
eth	1204
oint	1205
▁fl	1206
land	1207
oth	1208
▁pr	1209
▁br	1210
▁Ar	1211
ments	1212
alth	1213
▁every	1214
rib	1215
▁col	1216
▁may	1217
▁look	1218
tern	1219
▁sec	1220
ict	1221
ices	1222
ren	1223
我们	1224
▁ph	1225
▁use	1226
erm	1227
▁know	1228
ange	1229
▁tra	1230
可以	1231
ience	1232
▁fin	1233
ower	1234
usiness	1235
oun	1236
▁inc	1237
▁where	1238
▁many	1239
▁want	1240
▁these	1241
ures	1242
ement	1243
gan	1244
fore	1245
ility	1246
pr	1247
ps	1248
工作	1249
▁exper	1250
▁could	1251
自己	1252
▁ac	1253
riv	1254
▁rem	1255
);	1256
oss	1257
elf	1258
aking	1259
erson	1260
ash	1261
ener	1262
ues	1263
▁Wh	1264
▁pol	1265
ner	1266
▁ass	1267
▁now	1268
▁set	1269
▁ent	1270
▁dif	1271
ug	1272
//	1273
ata	1274
▁world	1275
bs	1276
ract	1277
▁rel	1278
ys	1279
ystem	1280
ible	1281
air	1282
▁ret	1283
ular	1284
▁Se	1285
▁show	1286
ative	1287
ull	1288
ars	1289
▁Le	1290
ty	1291
▁Sh	1292
uch	1293
irect	1294
az	1295
its	1296
▁ke	1297
▁You	1298
▁loc	1299
▁fam	1300
▁pres	1301
▁dec	1302
up	1303
▁way	1304
▁start	1305
ank	1306
▁Al	1307
ied	1308
▁own	1309
▁count	1310
▁see	1311
ason	1312
▁art	1313
meric	1314
gram	1315
hes	1316
ix	1317
▁high	1318
▁very	1319
ah	1320
ax	1321
formation	1322
ins	1323
▁|	1324
▁lead	1325
itt	1326
man	1327
▁develop	1328
ced	1329
▁end	1330
▁right	1331
▁inst	1332
chn	1333
view	1334
ient	1335
▁again	1336
▁spec	1337
▁mon	1338
▁even	1339
▁mem	1340
ale	1341
iel	1342
▁him	1343
ven	1344
▁such	1345
▁'	1346
▁And	1347
ince	1348
iversity	1349
▁team	1350
▁gu	1351
▁eff	1352
▁An	1353
▁call	1354
▁sm	1355
unity	1356
ives	1357
▁last	1358
other	1359
▁should	1360
ex	1361
ton	1362
▁then	1363
ble	1364
pen	1365
vern	1366
ollow	1367
ines	1368
▁being	1369
co	1370
▁long	1371
▁sur	1372
au	1373
▁Cl	1374
ouse	1375
▁made	1376
atch	1377
▁trans	1378
▁ins	1379
We	1380
▁gr	1381
▁great	1382
▁good	1383
▁support	1384
▁business	1385
▁med	1386
con	1387
▁Americ	1388
▁Tr	1389
ital	1390
ets	1391
▁did	1392
▁because	1393
▁fil	1394
▁best	1395
▁{	1396
ution	1397
▁mark	1398
▁vis	1399
▁ser	1400
arg	1401
▁bel	1402
▁find	1403
▁str	1404
der	1405
ames	1406
▁down	1407
illion	1408
▁num	1409
▁def	1410
▁min	1411
▁before	1412
▁ear	1413
▁mod	1414
uc	1415
▁differ	1416
ages	1417
▁don	1418
▁As	1419
▁public	1420
line	1421
▁much	1422
▁requ	1423
arm	1424
▁cre	1425
ef	1426
▁cur	1427
ology	1428
▁av	1429
▁—	1430
▁ed	1431
oci	1432
ten	1433
▁those	1434
▁take	1435
▁Sc	1436
St	1437
let	1438
ists	1439
▁ra	1440
▁car	1441
uth	1442
oh	1443
cept	1444
ters	1445
cess	1446
way	1447
▁home	1448
没有	1449
led	1450
▁For	1451
▁while	1452
ween	1453
▁Q	1454
▁day	1455
rent	1456
▁life	1457
▁Ind	1458
▁here	1459
▁does	1460
▁read	1461
orn	1462
ather	1463
Wh	1464
▁Ad	1465
▁system	1466
▁found	1467
ave	1468
ern	1469
roup	1470
▁person	1471
oot	1472
▁‘	1473
It	1474
read	1475
ands	1476
uss	1477
▁care	1478
imes	1479
alk	1480
els	1481
▁sub	1482
▁Bl	1483
▁Fr	1484
eg	1485
▁program	1486
▁ext	1487
▁design	1488
▁child	1489
ross	1490
▁report	1491
▁exp	1492
▁between	1493
="	1494
▁three	1495
ature	1496
▁sign	1497
ral	1498
▁used	1499
▁class	1500
▁form	1501
▁provid	1502
▁around	1503
▁cent	1504
▁follow	1505
▁rep	1506
▁adv	1507
▁Sp	1508
ute	1509
akes	1510
ier	1511
▁det	1512
▁think	1513
aj	1514
▁cour	1515
▁including	1516
ield	1517
ional	1518
usic	1519
bers	1520
ety	1521
就是	1522
This	1523
▁during	1524
oad	1525
时间	1526
ann	1527
ever	1528
▁Is	1529
▁Ph	1530
▁del	1531
ished	1532
▁school	1533
什么	1534
▁both	1535
lease	1536
ize	1537
▁company	1538
▁sim	1539
▁bo	1540
ually	1541
▁che	1542
▁contin	1543
▁gl	1544
ants	1545
▁som	1546
gy	1547
▁But	1548
▁Z	1549
ina	1550
ality	1551
ode	1552
ik	1553
▁Pl	1554
ism	1555
▁still	1556
▁<	1557
att	1558
▁run	1559
mber	1560
▁val	1561
▁Col	1562
▁fun	1563
▁techn	1564
ness	1565
ces	1566
ved	1567
▁each	1568
▁health	1569
ision	1570
▁project	1571
中国	1572
▁build	1573
▁/	1574
▁ann	1575
▁book	1576
▁import	1577
▁Ex	1578
▁week	1579
ider	1580
▁sol	1581
▁month	1582
ized	1583
▁cr	1584
▁prof	1585
▁game	1586
▁var	1587
▁open	1588
▁Be	1589
▁post	1590
ired	1591
▁Comm	1592
ural	1593
▁same	1594
br	1595
ple	1596
eng	1597
▁point	1598
▁direct	1599
▁product	1600
▁Te	1601
▁cap	1602
▁Con	1603
▁She	1604
vernment	1605
▁different	1606
▁inf	1607
ving	1608
▁data	1609
vent	1610
▁If	1611
▁iss	1612
ined	1613
ustom	1614
ER	1615
▁invest	1616
▁gener	1617
omen	1618
://	1619
ery	1620
son	1621
riend	1622
orth	1623
▁place	1624
▁organ	1625
▁top	1626
iver	1627
▁Cent	1628
▁list	1629
▁la	1630
ploy	1631
ining	1632
▁[	1633
arn	1634
▁dist	1635
ccess	1636
ared	1637
▁going	1638
outh	1639
▁char	1640
inal	1641
▁appro	1642
▁Res	1643
▁pass	1644
▁resp	1645
ee	1646
reen	1647
▁really	1648
▁family	1649
▁say	1650
ailable	1651
▁rese	1652
cent	1653
▁though	1654
▁mov	1655
▁result	1656
▁law	1657
▁conf	1658
ember	1659
▁process	1660
▁}	1661
ley	1662
uro	1663
▁dep	1664
▁All	1665
▁perform	1666
iving	1667
▁i	1668
公司	1669
ruct	1670
ission	1671
▁ob	1672
▁second	1673
▁cor	1674
ms	1675
rist	1676
▁US	1677
▁sk	1678
eb	1679
▁since	1680
的人	1681
▁partic	1682
enn	1683
▁says	1684
▁el	1685
▁cle	1686
▁sl	1687
ways	1688
▁prot	1689
raph	1690
,"	1691
▁against	1692
▁offer	1693
ody	1694
▁writ	1695
进行	1696
▁number	1697
sh	1698
ring	1699
urs	1700
▁ty	1701
ron	1702
▁hist	1703
▁using	1704
▁rece	1705
▁main	1706
▁stat	1707
ocial	1708
▁state	1709
▁How	1710
▁return	1711
by	1712
▁On	1713
▁leg	1714
ator	1715
▁est	1716
ump	1717
ows	1718
▁win	1719
▁expl	1720
ior	1721
the	1722
▁happ	1723
▁Jan	1724
▁next	1725
▁lot	1726
▁rest	1727
▁real	1728
▁They	1729
▁current	1730
ohn	1731
如果	1732
▁oper	1733
▁*	1734
app	1735
”,	1736
这个	1737
▁big	1738
▁disc	1739
ency	1740
ister	1741
ording	1742
▁Mar	1743
▁pop	1744
ense	1745
ott	1746
▁market	1747
▁available	1748
ially	1749
urch	1750
ves	1751
▁plan	1752
que	1753
ling	1754
▁few	1755
ases	1756
ury	1757
▁pat	1758
ences	1759
une	1760
ney	1761
▁poss	1762
▁Co	1763
▁interest	1764
ret	1765
问题	1766
less	1767
lection	1768
▁manag	1769
▁incre	1770
▁head	1771
▁May	1772
▁million	1773
▁fr	1774
▁four	1775
IN	1776
▁Go	1777
▁Or	1778
ird	1779
nect	1780
ically	1781
ration	1782
▁fact	1783
gg	1784
▁eas	1785
min	1786
ubl	1787
ries	1788
to	1789
▁fac	1790
▁custom	1791
▁hand	1792
▁offic	1793
▁service	1794
uthor	1795
orld	1796
▁come	1797
ittle	1798
▁grow	1799
▁power	1800
▁test	1801
self	1802
ober	1803
ym	1804
生活	1805
▁intern	1806
▁Man	1807
孩子	1808
▁too	1809
ised	1810
ON	1811
med	1812
ead	1813
sc	1814
stand	1815
▁community	1816
▁free	1817
▁country	1818
ream	1819
ote	1820
▁Can	1821
▁small	1822
ains	1823
时候	1824
▁pos	1825
ately	1826
▁opt	1827
▁another	1828
▁Eng	1829
▁bro	1830
conom	1831
▁music	1832
▁put	1833
ope	1834
thing	1835
▁indust	1836
▁dem	1837
por	1838
ories	1839
iron	1840
▁To	1841
ium	1842
▁Car	1843
▁keep	1844
ething	1845
▁eng	1846
be	1847
▁important	1848
err	1849
▁tri	1850
▁love	1851
▁working	1852
▁recent	1853
教育	1854
▁students	1855
▁access	1856
▁const	1857
acy	1858
ox	1859
rol	1860
ards	1861
ights	1862
因为	1863
▁quest	1864
▁ref	1865
uman	1866
▁services	1867
▁name	1868
ats	1869
疫情	1870
vious	1871
▁better	1872
▁try	1873
▁feel	1874
▁local	1875
yn	1876
rem	1877
▁ide	1878
ertain	1879
ware	1880
▁There	1881
Ch	1882
▁stand	1883
▁must	1884
▁season	1885
▁without	1886
▁always	1887
▁full	1888
▁sit	1889
发展	1890
uly	1891
▁prom	1892
▁effect	1893
work	1894
esp	1895
icle	1896
▁sing	1897
▁level	1898
oor	1899
▁things	1900
▁United	1901
pro	1902
▁Br	1903
▁pay	1904
▁Pr	1905
▁old	1906
▁American	1907
人员	1908
ript	1909
服务	1910
▁success	1911
AR	1912
ajor	1913
▁provide	1914
ai	1915
lement	1916
ours	1917
▁friend	1918
▁children	1919
▁water	1920
他们	1921
()	1922
aff	1923
▁cost	1924
不是	1925
ES	1926
▁group	1927
▁Rep	1928
▁Fl	1929
▁John	1930
▁today	1931
▁record	1932
▁something	1933
aut	1934
▁Am	1935
of	1936
osed	1937
AT	1938
▁Med	1939
▁view	1940
▁able	1941
需要	1942
oney	1943
▁meet	1944
ID	1945
▁visit	1946
▁aff	1947
ivid	1948
uture	1949
管理	1950
arent	1951
leg	1952
ising	1953
▁research	1954
▁expect	1955
ering	1956
ization	1957
uck	1958
lex	1959
▁elect	1960
▁z	1961
ush	1962
▁area	1963
aster	1964
omm	1965
▁news	1966
▁change	1967
▁With	1968
▁order	1969
学习	1970
ocus	1971
▁proble	1972
▁equ	1973
▁event	1974
▁story	1975
itions	1976
▁hard	1977
ived	1978
▁bre	1979
▁fund	1980
▁Su	1981
▁special	1982
▁met	1983
▁Gr	1984
▁sever	1985
ified	1986
▁never	1987
af	1988
▁days	1989
ideo	1990
osp	1991
inc	1992
ients	1993
here	1994
▁film	1995
▁At	1996
▁Pol	1997
▁case	1998
大家	1999
▁chang	2000
▁belie	2001
▁past	2002
tain	2003
▁Pres	2004
▁No	2005
ball	2006
▁beh	2007
As	2008
▁across	2009
▁within	2010
▁air	2011
▁got	2012
▁York	2013
▁little	2014
▁Euro	2015
ify	2016
▁near	2017
viron	2018
urity	2019
▁School	2020
ourn	2021
uary	2022
▁supp	2023
▁National	2024
▁World	2025
▁exc	2026
▁camp	2027
▁employ	2028
▁profess	2029
AN	2030
▁addition	2031
▁activ	2032
ential	2033
▁Ass	2034
▁News	2035
▁members	2036
par	2037
ument	2038
▁proper	2039
▁present	2040
▁So	2041
gin	2042
orts	2043
ource	2044
aim	2045
▁less	2046
atter	2047
ability	2048
artment	2049
▁social	2050
obal	2051
ales	2052
▁making	2053
ateg	2054
▁conc	2055
▁Christ	2056
By	2057
▁city	2058
▁consider	2059
▁might	2060
wards	2061
til	2062
▁Gu	2063
OR	2064
▁Count	2065
icy	2066
▁City	2067
▁phot	2068
▁webs	2069
side	2070
企业	2071
arge	2072
▁Min	2073
▁State	2074
If	2075
很多	2076
ane	2077
ems	2078
▁spe	2079
▁ask	2080
▁Inst	2081
augh	2082
情况	2083
▁women	2084
▁cho	2085
▁job	2086
可能	2087
▁allow	2088
rict	2089
▁impro	2090
ograph	2091
ask	2092
▁turn	2093
▁creat	2094
ele	2095
▁let	2096
ination	2097
▁App	2098
▁educ	2099
安全	2100
▁ben	2101
org	2102
wit	2103
iven	2104
▁major	2105
▁pract	2106
iam	2107
ners	2108
▁priv	2109
▁Intern	2110
AS	2111
▁En	2112
ending	2113
ung	2114
▁along	2115
▁give	2116
ike	2117
eter	2118
▁:	2119
eral	2120
还是	2121
所以	2122
▁That	2123
vironment	2124
lege	2125
ians	2126
▁young	2127
大学	2128
▁announ	2129
ills	2130
He	2131
▁protect	2132
atic	2133
duct	2134
What	2135
▁move	2136
信息	2137
▁online	2138
▁focus	2139
▁saf	2140
通过	2141
gether	2142
▁together	2143
idd	2144
ample	2145
▁Ed	2146
ready	2147
活动	2148
但是	2149
▁mil	2150
▁par	2151
▁Oct	2152
alf	2153
</	2154
▁sure	2155
An	2156
▁orig	2157
▁opport	2158
▁future	2159
▁X	2160
▁called	2161
ials	2162
ris	2163
▁Europe	2164
▁include	2165
put	2166
这样	2167
▁rele	2168
都是	2169
▁trad	2170
rop	2171
ored	2172
▁become	2173
第一	2174
▁left	2175
▁econom	2176
▁Apr	2177
▁aut	2178
▁Aust	2179
ique	2180
EN	2181
▁Off	2182
▁term	2183
for	2184
ention	2185
▁applic	2186
▁Bro	2187
▁site	2188
ended	2189
▁until	2190
▁#	2191
iting	2192
▁series	2193
aces	2194
▁cover	2195
lish	2196
▁industry	2197
ipp	2198
itor	2199
▁Ab	2200
▁line	2201
ene	2202
ances	2203
ony	2204
▁commun	2205
▁fore	2206
▁polit	2207
ext	2208
▁connect	2209
ably	2210
ids	2211
▁South	2212
joy	2213
▁away	2214
yle	2215
▁Af	2216
▁based	2217
anies	2218
▁history	2219
▁mult	2220
▁Cal	2221
▁ve	2222
ively	2223
▁March	2224
▁several	2225
For	2226
book	2227
resent	2228
How	2229
ots	2230
ones	2231
▁dev	2232
▁charact	2233
▁already	2234
▁Mc	2235
ference	2236
国家	2237
▁net	2238
▁@	2239
▁times	2240
▁January	2241
人的	2242
utions	2243
rap	2244
▁cond	2245
▁Im	2246
You	2247
▁food	2248
itive	2249
che	2250
▁non	2251
▁early	2252
abor	2253
▁lik	2254
要求	2255
▁looking	2256
自己的	2257
▁North	2258
已经	2259
项目	2260
▁compet	2261
▁dri	2262
▁why	2263
▁Aug	2264
ured	2265
ada	2266
▁five	2267
▁States	2268
▁following	2269
ched	2270
▁website	2271
现在	2272
▁jo	2273
irl	2274
▁create	2275
▁What	2276
reet	2277
▁short	2278
On	2279
▁vers	2280
iday	2281
ails	2282
IS	2283
yl	2284
专业	2285
",	2286
▁known	2287
ev	2288
▁author	2289
ividual	2290
aring	2291
▁mar	2292
▁won	2293
rew	2294
over	2295
ttps	2296
ources	2297
ger	2298
▁live	2299
ster	2300
▁far	2301
▁money	2302
">	2303
ey	2304
▁pot	2305
ued	2306
ift	2307
▁April	2308
▁learn	2309
hers	2310
oard	2311
▁Dep	2312
▁often	2313
imate	2314
▁Sept	2315
▁cult	2316
▁invol	2317
year	2318
▁possible	2319
utes	2320
▁President	2321
raw	2322
▁media	2323
atures	2324
▁percent	2325
oid	2326
也是	2327
人民	2328
oman	2329
▁Cont	2330
▁chall	2331
urther	2332
▁di	2333
▁June	2334
raft	2335
▁Serv	2336
健康	2337
学生	2338
▁course	2339
▁deal	2340
ovember	2341
▁having	2342
cember	2343
go	2344
▁products	2345
好的	2346
elling	2347
▁Feb	2348
aper	2349
▁house	2350
▁Gl	2351
▁occ	2352
▁large	2353
ttp	2354
▁light	2355
▁treat	2356
▁ever	2357
学校	2358
ief	2359
cer	2360
fect	2361
朋友	2362
▁hold	2363
开始	2364
▁Sec	2365
▁key	2366
▁companies	2367
▁study	2368
▁Dr	2369
▁Em	2370
▁needs	2371
sp	2372
▁July	2373
▁human	2374
▁enjoy	2375
▁night	2376
使用	2377
▁account	2378
▁came	2379
▁Har	2380
▁ident	2381
▁told	2382
▁Ge	2383
▁later	2384
▁value	2385
▁benef	2386
AL	2387
isc	2388
知道	2389
▁video	2390
▁others	2391
pos	2392
▁Will	2393
▁review	2394
me	2395
▁field	2396
unch	2397
ray	2398
▁among	2399
ape	2400
IT	2401
ulation	2402
社会	2403
▁Park	2404
▁word	2405
ww	2406
▁Me	2407
▁When	2408
▁Art	2409
▁room	2410
▁dr	2411
▁comes	2412
▁months	2413
▁building	2414
▁kind	2415
back	2416
Pro	2417
sel	2418
▁makes	2419
▁bring	2420
▁took	2421
ctor	2422
的时候	2423
▁quality	2424
roll	2425
IC	2426
▁strong	2427
▁bas	2428
▁larg	2429
▁men	2430
▁publ	2431
▁County	2432
▁lim	2433
▁ris	2434
ole	2435
ogn	2436
irm	2437
ilities	2438
▁personal	2439
www	2440
——	2441
ches	2442
▁mater	2443
▁song	2444
▁Ag	2445
load	2446
▁+	2447
▁pain	2448
ilt	2449
▁war	2450
iod	2451
ival	2452
▁started	2453
ED	2454
aken	2455
▁Part	2456
my	2457
▁clear	2458
▁hig	2459
iol	2460
▁Center	2461
重要	2462
建设	2463
There	2464
▁anal	2465
ators	2466
▁sum	2467
一定	2468
中心	2469
aus	2470
ethod	2471
room	2472
Al	2473
▁et	2474
ana	2475
▁Che	2476
most	2477
uf	2478
▁games	2479
这些	2480
▁side	2481
earch	2482
▁Bar	2483
▁West	2484
▁vari	2485
▁control	2486
来源	2487
的一	2488
de	2489
▁ens	2490
▁Comp	2491
▁doc	2492
▁CO	2493
▁Health	2494
▁didn	2495
ze	2496
rain	2497
▁One	2498
sw	2499
ained	2500
val	2501
▁thing	2502
技术	2503
play	2504
gr	2505
ounc	2506
▁November	2507
urg	2508
怎么	2509
But	2510
▁December	2511
ides	2512
▁October	2513
nov	2514
▁tem	2515
▁mean	2516
▁function	2517
内容	2518
aps	2519
illed	2520
ered	2521
uff	2522
选择	2523
▁deb	2524
▁Stud	2525
▁tax	2526
▁My	2527
▁means	2528
ancial	2529
▁lo	2530
▁tre	2531
ament	2532
▁vol	2533
▁least	2534
▁War	2535
idence	2536
研究	2537
▁done	2538
▁enc	2539
cript	2540
▁comb	2541
▁House	2542
▁September	2543
nes	2544
▁space	2545
▁final	2546
▁page	2547
AC	2548
▁enough	2549
▁appear	2550
相关	2551
▁share	2552
▁talk	2553
▁Par	2554
Ex	2555
个人	2556
ison	2557
▁Cor	2558
▁tot	2559
▁UK	2560
▁ener	2561
time	2562
▁init	2563
▁Austral	2564
ler	2565
▁contact	2566
now	2567
市场	2568
▁former	2569
▁fav	2570
igital	2571
▁role	2572
vert	2573
aur	2574
ibr	2575
ests	2576
▁mom	2577
▁wr	2578
ham	2579
▁national	2580
▁claim	2581
▁land	2582
非常	2583
▁issues	2584
的是	2585
▁Do	2586
▁according	2587
ournal	2588
▁Afric	2589
▁given	2590
▁seen	2591
▁,	2592
▁track	2593
ino	2594
elebr	2595
▁doesn	2596
▁six	2597
▁certain	2598
部分	2599
irc	2600
▁works	2601
▁America	2602
RE	2603
▁check	2604
atur	2605
▁August	2606
▁ant	2607
▁ago	2608
bum	2609
▁aud	2610
▁press	2611
Re	2612
▁crit	2613
**	2614
▁once	2615
atest	2616
不能	2617
▁redu	2618
▁complet	2619
ille	2620
▁Dav	2621
▁Sm	2622
ruary	2623
▁stop	2624
▁discuss	2625
▁happen	2626
▁getting	2627
▁single	2628
▁example	2629
▁doing	2630
head	2631
crib	2632
▁require	2633
ague	2634
ecut	2635
umb	2636
▁host	2637
▁Act	2638
▁Our	2639
Ph	2640
▁super	2641
▁Mark	2642
▁due	2643
▁relations	2644
opy	2645
anks	2646
方式	2647
▁port	2648
▁content	2649
▁beaut	2650
reg	2651
▁address	2652
▁pri	2653
itle	2654
▁buy	2655
防控	2656
▁foot	2657
ondon	2658
▁El	2659
ington	2660
oon	2661
chie	2662
▁added	2663
itted	2664
▁impact	2665
产品	2666
To	2667
▁third	2668
▁fre	2669
▁Brit	2670
ilar	2671
ST	2672
▁Qu	2673
adem	2674
到了	2675
喜欢	2676
▁low	2677
▁death	2678
lete	2679
不要	2680
▁specific	2681
▁self	2682
ither	2683
ged	2684
ouncil	2685
▁begin	2686
同时	2687
angu	2688
你的	2689
ades	2690
not	2691
▁yet	2692
▁range	2693
AP	2694
▁hours	2695
▁went	2696
▁further	2697
▁staff	2698
And	2699
fort	2700
▁step	2701
Cl	2702
▁respons	2703
▁represent	2704
▁continue	2705
ibility	2706
▁sound	2707
elt	2708
▁Home	2709
▁type	2710
▁upd	2711
▁By	2712
▁private	2713
▁coll	2714
rodu	2715
gress	2716
asing	2717
联系	2718
一些	2719
网络	2720
aul	2721
lu	2722
adu	2723
所有	2724
一起	2725
▁Her	2726
▁Reg	2727
aid	2728
aign	2729
▁energy	2730
▁body	2731
▁These	2732
▁Rec	2733
关注	2734
▁quick	2735
▁member	2736
▁leaders	2737
▁events	2738
还有	2739
right	2740
▁bit	2741
发现	2742
老师	2743
arter	2744
',	2745
▁travel	2746
▁cou	2747
off	2748
minist	2749
▁below	2750
arget	2751
▁Per	2752
不会	2753
era	2754
▁age	2755
▁particip	2756
▁friends	2757
影响	2758
▁x	2759
wh	2760
oe	2761
▁Trump	2762
▁whether	2763
▁global	2764
▁typ	2765
▁problem	2766
Con	2767
ruction	2768
▁His	2769
When	2770
▁heart	2771
▁Cour	2772
▁wind	2773
▁previous	2774
▁period	2775
▁half	2776
▁Pe	2777
▁parent	2778
设计	2779
▁miss	2780
世界	2781
irt	2782
ocr	2783
▁areas	2784
▁career	2785
ees	2786
▁After	2787
▁However	2788
ett	2789
▁Associ	2790
mit	2791
▁office	2792
能力	2793
▁February	2794
▁easy	2795
▁Russ	2796
cast	2797
Sh	2798
coming	2799
▁signific	2800
▁High	2801
atural	2802
▁famil	2803
ald	2804
atform	2805
▁hom	2806
▁cut	2807
▁mess	2808
lin	2809
▁pack	2810
ociety	2811
iff	2812
alt	2813
▁Direct	2814
New	2815
▁education	2816
▁taking	2817
或者	2818
▁Mr	2819
iter	2820
▁Law	2821
▁Not	2822
▁held	2823
单位	2824
key	2825
icro	2826
▁Mich	2827
ends	2828
▁tell	2829
▁break	2830
▁contrib	2831
hern	2832
▁president	2833
ried	2834
▁London	2835
though	2836
提供	2837
如何	2838
▁perfect	2839
▁Net	2840
▁action	2841
ama	2842
Ar	2843
amed	2844
▁security	2845
微信	2846
▁rights	2847
▁features	2848
clus	2849
aged	2850
▁improve	2851
对于	2852
AM	2853
ederal	2854
其他	2855
rug	2856
rest	2857
组织	2858
▁hot	2859
ips	2860
dd	2861
ault	2862
▁forward	2863
ecially	2864
▁esp	2865
agn	2866
▁soft	2867
hel	2868
empt	2869
▁thought	2870
▁hope	2871
hib	2872
主要	2873
▁TV	2874
▁India	2875
▁nec	2876
▁results	2877
▁sent	2878
▁shows	2879
ensive	2880
▁fall	2881
uk	2882
▁install	2883
ma	2884
出现	2885
▁mot	2886
经济	2887
olution	2888
lev	2889
▁players	2890
▁popular	2891
▁Day	2892
eal	2893
▁meas	2894
▁Don	2895
▁recogn	2896
ogle	2897
为了	2898
new	2899
iful	2900
▁currently	2901
▁received	2902
▁close	2903
▁watch	2904
▁question	2905
fully	2906
ops	2907
aging	2908
▁Ser	2909
▁mind	2910
icles	2911
▁wa	2912
▁achie	2913
▁Inc	2914
iences	2915
▁--	2916
▁points	2917
▁countries	2918
▁offers	2919
verage	2920
ently	2921
▁actually	2922
▁taken	2923
▁court	2924
ender	2925
那么	2926
▁announced	2927
ores	2928
▁hon	2929
▁sw	2930
▁face	2931
▁estab	2932
▁Just	2933
▁Ang	2934
cover	2935
ml	2936
▁hit	2937
▁training	2938
ospital	2939
aching	2940
ume	2941
):	2942
▁collect	2943
以上	2944
cy	2945
▁front	2946
("	2947
ites	2948
oph	2949
▁latest	2950
▁stay	2951
fic	2952
:“	2953
▁tool	2954
ental	2955
standing	2956
▁true	2957
▁reason	2958
based	2959
▁China	2960
比较	2961
▁feature	2962
error	2963
目前	2964
▁clos	2965
发布	2966
hips	2967
iforn	2968
▁Mon	2969
ises	2970
ij	2971
▁issue	2972
uge	2973
ided	2974
eed	2975
epend	2976
▁San	2977
ael	2978
▁coming	2979
▁tour	2980
▁Air	2981
▁celebr	2982
▁Des	2983
▁//	2984
▁Tra	2985
na	2986
▁release	2987
itte	2988
EC	2989
▁attack	2990
▁More	2991
方面	2992
▁Sch	2993
▁price	2994
▁likely	2995
▁method	2996
▁behind	2997
▁various	2998
▁dou	2999
▁customers	3000
▁College	3001
▁Dis	3002
▁album	3003
▁assist	3004
ule	3005
平台	3006
▁phys	3007
▁character	3008
itional	3009
▁viol	3010
▁exist	3011
▁recently	3012
作为	3013
selves	3014
ires	3015
bor	3016
▁provides	3017
大的	3018
idge	3019
onse	3020
BC	3021
▁police	3022
▁text	3023
▁Sen	3024
▁created	3025
中的	3026
▁repl	3027
▁policy	3028
系统	3029
ifornia	3030
▁believe	3031
▁includes	3032
uation	3033
aker	3034
itute	3035
cial	3036
iddle	3037
▁engine	3038
▁almost	3039
▁Fin	3040
▁stre	3041
With	3042
redit	3043
oud	3044
医院	3045
根据	3046
▁original	3047
▁purch	3048
ky	3049
ules	3050
文化	3051
US	3052
istic	3053
aced	3054
ufact	3055
▁investig	3056
▁road	3057
▁reported	3058
▁select	3059
▁common	3060
▁campaign	3061
▁sugg	3062
▁entire	3063
▁lives	3064
bl	3065
useum	3066
▁Group	3067
是一	3068
▁living	3069
ification	3070
▁version	3071
resh	3072
uel	3073
▁Val	3074
▁total	3075
ructure	3076
▁position	3077
▁worked	3078
tr	3079
▁Black	3080
▁model	3081
考试	3082
▁La	3083
ari	3084
ledge	3085
set	3086
▁veh	3087
add	3088
▁above	3089
▁pick	3090
▁financial	3091
apt	3092
▁minutes	3093
▁trying	3094
▁fire	3095
oved	3096
▁op	3097
▁walk	3098
▁released	3099
acebook	3100
▁log	3101
uild	3102
以及	3103
▁bar	3104
▁deliver	3105
城市	3106
aily	3107
▁article	3108
HE	3109
▁pur	3110
▁property	3111
▁Your	3112
come	3113
▁agre	3114
▁else	3115
▁inj	3116
ication	3117
str	3118
agement	3119
ux	3120
▁political	3121
atory	3122
EO	3123
▁object	3124
▁whole	3125
▁concern	3126
▁Of	3127
▁unique	3128
▁search	3129
▁date	3130
oo	3131
ran	3132
obile	3133
witter	3134
acc	3135
wood	3136
觉得	3137
ford	3138
itary	3139
▁prob	3140
cle	3141
▁became	3142
▁King	3143
▁God	3144
工程	3145
ET	3146
▁ey	3147
▁consum	3148
▁decision	3149
▁amount	3150
▁dom	3151
▁platform	3152
▁Pat	3153
环境	3154
▁questions	3155
这种	3156
全国	3157
▁fail	3158
oring	3159
▁ep	3160
▁Ac	3161
其实	3162
▁code	3163
ara	3164
Un	3165
oto	3166
ida	3167
▁partners	3168
iet	3169
▁town	3170
▁everyone	3171
amb	3172
▁leading	3173
▁insp	3174
ground	3175
yd	3176
▁idea	3177
▁takes	3178
ams	3179
▁changes	3180
▁pict	3181
▁Char	3182
▁via	3183
▁tw	3184
来的	3185
iple	3186
▁similar	3187
iction	3188
▁file	3189
▁contract	3190
▁associ	3191
政府	3192
▁answ	3193
▁ess	3194
▁Up	3195
▁Hol	3196
▁cases	3197
▁growth	3198
▁gen	3199
▁increase	3200
apan	3201
part	3202
▁anim	3203
▁please	3204
eks	3205
▁network	3206
▁Court	3207
了解	3208
▁mor	3209
▁provided	3210
▁Germ	3211
▁challeng	3212
基本	3213
ession	3214
lier	3215
▁black	3216
▁Dem	3217
▁risk	3218
▁mat	3219
▁tal	3220
▁someone	3221
▁award	3222
不同	3223
ashington	3224
▁diffic	3225
▁Friday	3226
▁complete	3227
▁potential	3228
▁vict	3229
▁soon	3230
▁recomm	3231
▁difficult	3232
▁however	3233
▁late	3234
ica	3235
▁Vol	3236
▁From	3237
发生	3238
▁imm	3239
▁began	3240
ags	3241
了一	3242
Com	3243
▁party	3244
hing	3245
▁needed	3246
anguage	3247
▁general	3248
▁respect	3249
▁target	3250
▁ensure	3251
pre	3252
▁seem	3253
▁played	3254
更多	3255
orks	3256
duc	3257
ishing	3258
▁systems	3259
▁rad	3260
ports	3261
▁wanted	3262
ception	3263
VID	3264
▁Sund	3265
ply	3266
▁ways	3267
第二	3268
▁ground	3269
▁cal	3270
▁und	3271
视频	3272
▁director	3273
▁published	3274
有限	3275
ese	3276
▁Street	3277
ging	3278
arc	3279
▁required	3280
▁email	3281
▁built	3282
hold	3283
▁link	3284
roups	3285
iate	3286
light	3287
▁>	3288
▁red	3289
All	3290
▁clean	3291
▁opp	3292
▁park	3293
atives	3294
urance	3295
('	3296
▁Acc	3297
ffic	3298
anced	3299
注意	3300
idents	3301
开展	3302
ст	3303
▁Gener	3304
▁Ste	3305
▁projects	3306
ittee	3307
▁ste	3308
▁Red	3309
▁Phil	3310
▁legal	3311
ecutive	3312
▁emer	3313
招聘	3314
交通	3315
▁Wed	3316
知识	3317
▁print	3318
▁comput	3319
▁led	3320
▁brand	3321
▁girl	3322
onday	3323
▁wond	3324
▁Found	3325
▁either	3326
▁tou	3327
▁plans	3328
▁caus	3329
▁outside	3330
电话	3331
之后	3332
vis	3333
hood	3334
▁playing	3335
▁beautiful	3336
__	3337
▁designed	3338
▁Hist	3339
aving	3340
At	3341
▁users	3342
umn	3343
▁dest	3344
face	3345
▁Canada	3346
urb	3347
ivil	3348
();	3349
ville	3350
▁Sw	3351
▁expected	3352
aturday	3353
▁necess	3354
attle	3355
▁board	3356
▁Int	3357
▁David	3358
RO	3359
▁Council	3360
▁isn	3361
▁table	3362
ularly	3363
▁asked	3364
▁arch	3365
美国	3366
astic	3367
▁medical	3368
▁fig	3369
▁pers	3370
▁affect	3371
arning	3372
▁writing	3373
▁remain	3374
▁billion	3375
▁introdu	3376
▁anything	3377
▁Business	3378
▁deg	3379
▁Pre	3380
ude	3381
на	3382
▁document	3383
▁East	3384
So	3385
orge	3386
▁determ	3387
▁vot	3388
▁movie	3389
airs	3390
▁weeks	3391
ables	3392
rab	3393
▁favor	3394
▁running	3395
oice	3396
▁integ	3397
▁goal	3398
AD	3399
irth	3400
ares	3401
inks	3402
▁accept	3403
field	3404
▁band	3405
ims	3406
Tr	3407
▁prim	3408
EL	3409
▁quite	3410
fl	3411
▁bad	3412
数据	3413
▁neg	3414
▁English	3415
IL	3416
▁Cons	3417
▁po	3418
能够	3419
地区	3420
而且	3421
▁dam	3422
▁Prof	3423
▁student	3424
▁size	3425
▁cell	3426
enced	3427
▁Post	3428
▁subject	3429
生产	3430
▁Research	3431
ached	3432
▁describ	3433
▁Book	3434
▁ill	3435
▁manufact	3436
▁innov	3437
▁regard	3438
▁Now	3439
▁cook	3440
▁п	3441
起来	3442
▁meeting	3443
报名	3444
▁included	3445
▁receive	3446
▁Dist	3447
ological	3448
▁natural	3449
特别	3450
疫情防控	3451
unt	3452
▁details	3453
▁style	3454
▁Techn	3455
▁rather	3456
roid	3457
ocal	3458
部门	3459
ny	3460
OT	3461
▁involved	3462
▁Inter	3463
ico	3464
▁white	3465
▁ful	3466
izing	3467
akers	3468
▁exam	3469
action	3470
▁European	3471
▁express	3472
opp	3473
rown	3474
▁user	3475
方法	3476
▁digital	3477
mb	3478
▁Year	3479
▁Us	3480
成为	3481
今天	3482
▁simple	3483
▁histor	3484
▁fight	3485
oom	3486
▁patients	3487
▁web	3488
▁Mor	3489
mark	3490
ibrary	3491
▁der	3492
▁prop	3493
一样	3494
ceed	3495
▁club	3496
▁matter	3497
▁Trans	3498
▁sex	3499
▁abs	3500
▁loss	3501
▁Japan	3502
责任	3503
▁Sunday	3504
Cont	3505
▁circ	3506
▁First	3507
我的	3508
▁sales	3509
▁charg	3510
uesday	3511
▁region	3512
▁arg	3513
vey	3514
关于	3515
▁modern	3516
oke	3517
▁star	3518
aint	3519
cont	3520
▁Are	3521
ht	3522
最后	3523
进入	3524
▁programs	3525
每天	3526
应该	3527
sy	3528
▁mass	3529
▁Republic	3530
▁cand	3531
ysis	3532
istry	3533
OS	3534
▁William	3535
▁rate	3536
ING	3537
ursday	3538
ager	3539
直接	3540
tty	3541
希望	3542
alls	3543
cing	3544
价格	3545
规定	3546
ivity	3547
▁Monday	3548
▁sus	3549
▁problems	3550
▁Dec	3551
vest	3552
ype	3553
其中	3554
down	3555
UR	3556
itution	3557
ography	3558
iece	3559
▁base	3560
▁lost	3561
uments	3562
▁prior	3563
▁options	3564
order	3565
icated	3566
unities	3567
▁Tex	3568
::	3569
▁II	3570
pped	3571
▁round	3572
▁System	3573
▁Facebook	3574
Our	3575
▁located	3576
aries	3577
▁higher	3578
▁Out	3579
做好	3580
▁groups	3581
▁bi	3582
▁Australia	3583
▁average	3584
推荐	3585
一下	3586
irus	3587
▁broad	3588
▁screen	3589
▁Music	3590
▁reve	3591
ming	3592
▁match	3593
▁books	3594
▁stri	3595
▁worth	3596
▁moment	3597
▁interview	3598
标准	3599
sec	3600
精神	3601
▁learning	3602
▁deep	3603
▁в	3604
▁dise	3605
身体	3606
▁sat	3607
aches	3608
▁Review	3609
▁Saturday	3610
▁nation	3611
nesday	3612
estival	3613
▁Fil	3614
▁seems	3615
ра	3616
一次	3617
▁safety	3618
基础	3619
▁Institute	3620
▁Program	3621
▁treatment	3622
▁sold	3623
▁summer	3624
ension	3625
▁practice	3626
▁approach	3627
▁Indian	3628
▁driv	3629
rec	3630
▁Pal	3631
ampions	3632
▁fans	3633
容易	3634
▁statement	3635
▁While	3636
estern	3637
这里	3638
▁\	3639
▁suggest	3640
▁influ	3641
▁drug	3642
mp	3643
▁mother	3644
erous	3645
▁Director	3646
▁autom	3647
▁£	3648
▁economic	3649
iation	3650
▁image	3651
▁son	3652
import	3653
看到	3654
上的	3655
den	3656
▁decl	3657
▁woman	3658
北京	3659
avy	3660
▁probably	3661
▁parents	3662
表示	3663
一直	3664
One	3665
一般	3666
▁prevent	3667
asons	3668
▁request	3669
▁stories	3670
div	3671
▁fast	3672
mercial	3673
▁schools	3674
▁Cr	3675
▁sett	3676
▁Ne	3677
▁hol	3678
ustain	3679
过程	3680
▁British	3681
▁Cap	3682
▁knowledge	3683
▁stru	3684
ago	3685
antly	3686
iring	3687
▁extra	3688
资源	3689
真的	3690
▁sym	3691
▁ut	3692
▁https	3693
一步	3694
▁sen	3695
▁bed	3696
▁implement	3697
▁oil	3698
▁mag	3699
erved	3700
acing	3701
ctions	3702
▁defin	3703
inter	3704
rought	3705
rel	3706
isl	3707
▁families	3708
▁Ann	3709
anch	3710
▁refer	3711
▁longer	3712
mas	3713
ements	3714
oul	3715
▁box	3716
▁inside	3717
▁simply	3718
ection	3719
关系	3720
▁words	3721
▁title	3722
҉҉	3723
▁written	3724
▁card	3725
etimes	3726
▁administ	3727
点击	3728
oper	3729
▁mach	3730
▁source	3731
▁lab	3732
▁jud	3733
ado	3734
erc	3735
▁pric	3736
▁attempt	3737
rupt	3738
学院	3739
rael	3740
ни	3741
▁phone	3742
▁pan	3743
▁terms	3744
https	3745
rench	3746
dom	3747
提升	3748
fr	3749
完成	3750
▁encour	3751
▁software	3752
行业	3753
▁Paul	3754
▁itself	3755
ening	3756
▁saw	3757
uit	3758
▁Tuesday	3759
▁leave	3760
▁Google	3761
▁draw	3762
--	3763
opt	3764
▁path	3765
itect	3766
▁cannot	3767
▁Educ	3768
▁James	3769
▁earn	3770
▁conduct	3771
▁Public	3772
▁states	3773
▁kids	3774
ayer	3775
▁color	3776
不过	3777
▁player	3778
▁nothing	3779
▁White	3780
illing	3781
▁Ob	3782
▁fit	3783
▁cy	3784
iber	3785
After	3786
erve	3787
CO	3788
inary	3789
▁COVID	3790
▁resources	3791
▁Port	3792
▁threat	3793
▁sense	3794
▁Ear	3795
ellow	3796
ications	3797
▁prep	3798
▁Texas	3799
enge	3800
▁largest	3801
▁paper	3802
病毒	3803
▁firm	3804
▁center	3805
提高	3806
▁store	3807
▁Best	3808
zz	3809
▁stage	3810
▁ple	3811
▁Hall	3812
▁Thursday	3813
▁response	3814
▁Cong	3815
▁related	3816
->	3817
▁couple	3818
▁ready	3819
My	3820
▁organiz	3821
▁Green	3822
自然	3823
▁Jack	3824
▁squ	3825
▁Mod	3826
▁providing	3827
iles	3828
▁Ant	3829
ounter	3830
▁collabor	3831
年的	3832
▁drive	3833
mon	3834
▁gradu	3835
Is	3836
行为	3837
▁Office	3838
教师	3839
lying	3840
虽然	3841
azing	3842
used	3843
▁obs	3844
▁Develop	3845
")	3846
▁wel	3847
▁rev	3848
投资	3849
▁bank	3850
▁anyone	3851
▁mid	3852
pm	3853
ges	3854
▁Angel	3855
text	3856
esc	3857
▁ded	3858
▁Service	3859
▁sche	3860
▁Some	3861
▁prem	3862
inated	3863
建议	3864
重点	3865
新冠	3866
▁comment	3867
▁Ben	3868
hest	3869
ston	3870
oday	3871
▁Island	3872
▁culture	3873
▁ball	3874
imately	3875
来说	3876
▁den	3877
综合	3878
ION	3879
Be	3880
raz	3881
▁Wednesday	3882
imum	3883
▁skills	3884
IP	3885
gest	3886
ha	3887
▁distrib	3888
ki	3889
▁click	3890
▁teams	3891
▁bus	3892
asc	3893
▁pretty	3894
▁named	3895
有限公司	3896
▁div	3897
▁developed	3898
atal	3899
▁Africa	3900
mission	3901
手机	3902
▁Sim	3903
然后	3904
wide	3905
▁looks	3906
▁surpr	3907
这是	3908
▁display	3909
▁Read	3910
▁multiple	3911
ror	3912
▁blog	3913
支持	3914
http	3915
▁norm	3916
▁father	3917
iqu	3918
▁immed	3919
▁serious	3920
领导	3921
Ab	3922
▁Science	3923
omb	3924
ords	3925
▁farm	3926
▁ability	3927
weet	3928
comes	3929
ength	3930
机构	3931
olf	3932
▁wide	3933
▁Super	3934
where	3935
That	3936
参加	3937
期间	3938
unk	3939
oes	3940
▁Je	3941
作用	3942
条件	3943
▁Board	3944
▁military	3945
▁Michael	3946
也不	3947
ко	3948
▁quickly	3949
▁Here	3950
Sp	3951
的话	3952
▁hous	3953
ipment	3954
▁nearly	3955
▁growing	3956
只有	3957
udget	3958
▁instead	3959
免费	3960
force	3961
==	3962
为什么	3963
itiz	3964
▁Dan	3965
venue	3966
实现	3967
▁employees	3968
的事	3969
yp	3970
rows	3971
lim	3972
处理	3973
质量	3974
▁Del	3975
uted	3976
▁dead	3977
▁chance	3978
▁scient	3979
▁Rich	3980
▁plant	3981
▁sens	3982
yond	3983
▁official	3984
rote	3985
▁Wind	3986
osing	3987
▁language	3988
▁General	3989
▁Mart	3990
书记	3991
ought	3992
▁Sing	3993
感觉	3994
▁ideas	3995
itc	3996
band	3997
emic	3998
arr	3999
BA	4000
▁Get	4001
▁federal	4002
▁served	4003
▁standard	4004
▁achieve	4005
▁Ital	4006
代表	4007
▁progress	4008
▁levels	4009
Sc	4010
这一	4011
▁mus	4012
▁cause	4013
▁Great	4014
▁block	4015
▁clients	4016
▁teac	4017
就会	4018
cription	4019
▁Ev	4020
结果	4021
ube	4022
▁seek	4023
▁Add	4024
Se	4025
ND	4026
rect	4027
▁Bre	4028
▁England	4029
▁extrem	4030
▁mix	4031
▁hor	4032
▁separ	4033
▁race	4034
▁effic	4035
▁costs	4036
▁Democr	4037
▁complex	4038
家庭	4039
lements	4040
▁independ	4041
▁Award	4042
ples	4043
▁wid	4044
ona	4045
iger	4046
▁rout	4047
▁Twitter	4048
aughter	4049
urt	4050
及时	4051
irit	4052
amily	4053
地方	4054
ils	4055
▁lower	4056
分享	4057
▁goes	4058
▁exact	4059
▁material	4060
aves	4061
▁subs	4062
▁parts	4063
▁acqu	4064
▁ver	4065
▁Ber	4066
▁ten	4067
▁Rober	4068
Pl	4069
▁Gold	4070
功能	4071
rian	4072
▁regul	4073
▁Services	4074
▁happy	4075
▁reading	4076
▁upon	4077
国际	4078
class	4079
▁maintain	4080
ро	4081
▁reports	4082
▁Flor	4083
name	4084
▁trade	4085
计划	4086
现场	4087
▁Sol	4088
▁reach	4089
帮助	4090
▁cross	4091
合作	4092
科技	4093
No	4094
но	4095
▁variety	4096
▁download	4097
政策	4098
▁qual	4099
▁capital	4100
▁rock	4101
She	4102
urning	4103
卫生	4104
▁Press	4105
Im	4106
▁discover	4107
▁customer	4108
▁decided	4109
▁allows	4110
la	4111
▁sil	4112
作者	4113
▁lic	4114
▁expert	4115
▁location	4116
board	4117
rial	4118
▁choose	4119
阅读	4120
▁boy	4121
▁science	4122
解决	4123
▁Life	4124
▁respond	4125
公众	4126
通知	4127
群众	4128
文章	4129
aby	4130
ka	4131
▁с	4132
▁safe	4133
▁candid	4134
▁wonder	4135
▁streng	4136
获得	4137
▁Mem	4138
保障	4139
▁efforts	4140
ava	4141
▁workers	4142
icip	4143
rated	4144
nown	4145
有效	4146
isions	4147
▁whose	4148
▁Israel	4149
编辑	4150
▁hop	4151
ota	4152
▁highly	4153
inese	4154
▁capt	4155
▁demand	4156
win	4157
▁solution	4158
▁neigh	4159
▁cam	4160
▁brought	4161
▁solutions	4162
▁saying	4163
努力	4164
rast	4165
LE	4166
▁himself	4167
毕业	4168
▁quarter	4169
甚至	4170
▁Bel	4171
坚持	4172
ding	4173
▁Arch	4174
▁League	4175
▁enter	4176
▁huge	4177
科学	4178
产业	4179
▁thous	4180
▁launch	4181
▁Work	4182
▁http	4183
▁Road	4184
ategy	4185
▁attention	4186
▁Mag	4187
▁suff	4188
▁seven	4189
▁trust	4190
CC	4191
▁promot	4192
▁restaur	4193
▁message	4194
oyal	4195
▁Ke	4196
▁bal	4197
ividuals	4198
检测	4199
▁tick	4200
按照	4201
全面	4202
ties	4203
▁born	4204
▁exhib	4205
▁expand	4206
aled	4207
▁Church	4208
house	4209
▁Met	4210
▁Over	4211
Bl	4212
具有	4213
PS	4214
▁positive	4215
▁spent	4216
不断	4217
▁Mac	4218
sych	4219
berg	4220
pose	4221
Pre	4222
▁remember	4223
itation	4224
▁Company	4225
▁sports	4226
▁PM	4227
▁gave	4228
View	4229
▁shoot	4230
▁hands	4231
分析	4232
▁gets	4233
▁touch	4234
▁excell	4235
继续	4236
小时	4237
istan	4238
▁Thom	4239
▁Education	4240
只是	4241
▁towards	4242
App	4243
▁leader	4244
风险	4245
▁pred	4246
bon	4247
▁save	4248
ancy	4249
▁earlier	4250
▁wrote	4251
两个	4252
▁sell	4253
历史	4254
▁giving	4255
▁arriv	4256
▁bott	4257
ios	4258
▁Bank	4259
▁partner	4260
会议	4261
▁benefits	4262
▁speed	4263
col	4264
▁er	4265
▁Leg	4266
▁eight	4267
病例	4268
▁dog	4269
▁morning	4270
▁wasn	4271
body	4272
▁Mal	4273
lished	4274
lam	4275
▁choice	4276
▁hospital	4277
▁gives	4278
IM	4279
▁situation	4280
itar	4281
iding	4282
▁Museum	4283
▁commit	4284
▁contain	4285
▁laws	4286
▁comfort	4287
UT	4288
▁IN	4289
▁laun	4290
公安	4291
课程	4292
存在	4293
▁Franc	4294
enty	4295
包括	4296
▁mer	4297
成功	4298
▁fair	4299
▁consult	4300
▁artist	4301
ae	4302
▁starting	4303
患者	4304
▁Club	4305
▁govern	4306
ocks	4307
ester	4308
▁lif	4309
▁usually	4310
▁necessary	4311
▁football	4312
▁strateg	4313
▁credit	4314
任何	4315
like	4316
While	4317
积极	4318
Id	4319
各种	4320
认为	4321
change	4322
不仅	4323
▁detail	4324
▁sn	4325
▁appoint	4326
▁creating	4327
原因	4328
this	4329
培训	4330
治疗	4331
▁AM	4332
你们	4333
▁wife	4334
ya	4335
负责	4336
必须	4337
iller	4338
ancing	4339
▁annual	4340
▁Class	4341
准备	4342
▁etc	4343
▁Play	4344
Res	4345
这么	4346
▁college	4347
encies	4348
pper	4349
▁CEO	4350
有一	4351
▁directly	4352
效果	4353
▁wrong	4354
▁French	4355
▁THE	4356
▁died	4357
men	4358
Ad	4359
▁birth	4360
mitted	4361
inn	4362
家长	4363
▁Child	4364
▁feed	4365
▁bill	4366
bit	4367
导致	4368
▁yourself	4369
▁sle	4370
▁daily	4371
▁effective	4372
▁journal	4373
▁hum	4374
IV	4375
▁officials	4376
▁option	4377
▁demon	4378
▁gas	4379
▁mobile	4380
▁helped	4381
岗位	4382
才能	4383
今年	4384
ashion	4385
DA	4386
▁marketing	4387
▁cast	4388
uing	4389
的小	4390
▁Minister	4391
Col	4392
成绩	4393
▁Mary	4394
ero	4395
▁surv	4396
▁hear	4397
▁roll	4398
haps	4399
▁fully	4400
▁aware	4401
icine	4402
,“	4403
porate	4404
They	4405
▁Fore	4406
▁planning	4407
▁Star	4408
More	4409
ander	4410
▁materials	4411
▁green	4412
lied	4413
品牌	4414
▁effort	4415
unction	4416
▁Florida	4417
医疗	4418
▁History	4419
▁Str	4420
opyright	4421
▁evidence	4422
aught	4423
owers	4424
ulture	4425
保护	4426
▁Spec	4427
iant	4428
▁century	4429
▁sal	4430
▁Lou	4431
▁fem	4432
▁lack	4433
▁write	4434
▁Camp	4435
▁strugg	4436
▁electric	4437
Acc	4438
▁Top	4439
▁section	4440
sequ	4441
▁transport	4442
ourney	4443
▁fresh	4444
▁recommend	4445
▁Design	4446
istics	4447
▁novel	4448
有关	4449
申请	4450
▁mission	4451
arden	4452
▁places	4453
▁climate	4454
▁impress	4455
bre	4456
itch	4457
▁Rob	4458
za	4459
▁Rock	4460
▁nature	4461
▁inform	4462
▁District	4463
EM	4464
增加	4465
▁dream	4466
运动	4467
▁degree	4468
▁piece	4469
▁vacc	4470
gen	4471
▁attract	4472
porary	4473
▁disease	4474
undred	4475
iverse	4476
▁computer	4477
En	4478
care	4479
▁items	4480
落实	4481
加强	4482
▁goals	4483
▁serve	4484
▁limited	4485
▁Mil	4486
box	4487
orage	4488
bed	4489
osh	4490
▁uses	4491
社区	4492
place	4493
▁Cam	4494
CA	4495
hens	4496
▁Congress	4497
Or	4498
▁convers	4499
▁sale	4500
▁Sam	4501
▁stra	4502
▁avoid	4503
incip	4504
出来	4505
cel	4506
▁Most	4507
▁shot	4508
新闻	4509
▁equipment	4510
▁register	4511
上海	4512
ologies	4513
▁moving	4514
OL	4515
chan	4516
▁vill	4517
▁experi	4518
▁wood	4519
edy	4520
▁felt	4521
▁amazing	4522
▁gold	4523
het	4524
▁Att	4525
lor	4526
%,	4527
▁ult	4528
Get	4529
TS	4530
是否	4531
▁beyond	4532
▁Christmas	4533
Ind	4534
▁Sal	4535
▁reflect	4536
▁stream	4537
感染	4538
作品	4539
▁IS	4540
▁moved	4541
▁Mus	4542
▁Chinese	4543
CH	4544
▁relig	4545
教学	4546
▁Open	4547
▁Big	4548
▁answer	4549
保持	4550
实际	4551
简单	4552
▁Rel	4553
igation	4554
alse	4555
▁Vir	4556
▁join	4557
▁adult	4558
rive	4559
▁consist	4560
▁aw	4561
▁Bay	4562
▁Women	4563
▁Project	4564
arily	4565
▁shared	4566
以下	4567
因此	4568
bert	4569
▁images	4570
▁ri	4571
宣传	4572
▁Media	4573
集团	4574
▁Sur	4575
see	4576
▁»	4577
rey	4578
他的	4579
met	4580
具体	4581
一点	4582
▁ap	4583
▁Profess	4584
▁economy	4585
▁concept	4586
▁du	4587
▁ones	4588
▁floor	4589
TM	4590
Name	4591
▁vehicle	4592
▁beginning	4593
▁Smith	4594
分钟	4595
小学	4596
▁easily	4597
▁categ	4598
▁ahead	4599
▁</	4600
▁Carol	4601
icon	4602
just	4603
▁liter	4604
▁behav	4605
▁favorite	4606
▁mount	4607
▁continued	4608
▁Que	4609
html	4610
▁types	4611
同学	4612
▁USA	4613
azine	4614
҈҉҉	4615
icago	4616
▁mention	4617
▁alleg	4618
▁tools	4619
▁active	4620
游戏	4621
▁Good	4622
▁budget	4623
▁insurance	4624
消费	4625
▁Miss	4626
icate	4627
▁numbers	4628
atre	4629
▁)	4630
▁civil	4631
odes	4632
▁accom	4633
han	4634
人生	4635
▁Bec	4636
uty	4637
izes	4638
▁Los	4639
肺炎	4640
▁Alex	4641
▁increased	4642
▁Times	4643
rief	4644
▁Every	4645
▁sustain	4646
▁George	4647
▁allowed	4648
▁wild	4649
olic	4650
▁grand	4651
▁heard	4652
▁Society	4653
▁biggest	4654
▁Plan	4655
anta	4656
iled	4657
▁highest	4658
▁Fe	4659
ibly	4660
图片	4661
isode	4662
▁Committee	4663
第三	4664
▁ter	4665
▁mis	4666
uy	4667
▁Mex	4668
东西	4669
outhern	4670
▁initi	4671
▁opening	4672
ste	4673
▁analysis	4674
▁Care	4675
咨询	4676
▁subst	4677
De	4678
▁wants	4679
▁changed	4680
比如	4681
▁dro	4682
From	4683
▁cool	4684
▁send	4685
▁regular	4686
more	4687
之间	4688
之前	4689
▁force	4690
▁election	4691
ros	4692
▁cert	4693
itable	4694
▁Under	4695
azon	4696
检查	4697
未来	4698
▁sun	4699
▁Sl	4700
▁funding	4701
▁Tom	4702
▁sector	4703
acity	4704
▁tried	4705
ellig	4706
▁speak	4707
▁Sy	4708
事业	4709
材料	4710
▁senior	4711
▁owners	4712
▁tim	4713
▁Cle	4714
Read	4715
有人	4716
都会	4717
▁clin	4718
▁Cup	4719
annel	4720
▁Academ	4721
▁Journal	4722
▁smart	4723
anned	4724
▁slow	4725
别人	4726
▁Bill	4727
aith	4728
го	4729
roud	4730
rim	4731
▁Arts	4732
▁carry	4733
▁Mo	4734
▁Let	4735
▁artists	4736
▁River	4737
▁Market	4738
▁Community	4739
▁Spr	4740
左右	4741
unte	4742
▁remains	4743
故事	4744
▁People	4745
▁France	4746
▁door	4747
只要	4748
▁device	4749
arant	4750
ened	4751
▁names	4752
ken	4753
控制	4754
无法	4755
▁society	4756
List	4757
▁physical	4758
rie	4759
▁Ret	4760
▁continues	4761
do	4762
net	4763
PA	4764
▁paid	4765
▁desp	4766
都有	4767
agram	4768
▁Sub	4769
▁Apple	4770
list	4771
ien	4772
urrent	4773
▁challenge	4774
▁stock	4775
▁fix	4776
▁Def	4777
▁Hill	4778
IA	4779
父母	4780
▁helps	4781
inally	4782
▁benefit	4783
▁weekend	4784
▁jobs	4785
时代	4786
▁ge	4787
措施	4788
▁legisl	4789
▁studies	4790
资料	4791
▁academ	4792
▁emot	4793
▁pull	4794
▁Pet	4795
iers	4796
ronic	4797
▁turned	4798
▁condition	4799
公众号	4800
报告	4801
▁spread	4802
soft	4803
Le	4804
进一步	4805
▁finally	4806
▁max	4807
▁Aut	4808
ervation	4809
term	4810
vant	4811
▁rules	4812
介绍	4813
规划	4814
▁altern	4815
▁fine	4816
▁offering	4817
▁residents	4818
ounds	4819
▁cancer	4820
Post	4821
▁Mad	4822
开发	4823
普通	4824
lands	4825
▁meaning	4826
▁pm	4827
ache	4828
▁sites	4829
▁Web	4830
▁Rem	4831
不得	4832
UN	4833
iec	4834
由于	4835
▁surround	4836
实施	4837
▁songs	4838
▁imag	4839
▁ww	4840
gency	4841
▁overall	4842
press	4843
▁Sun	4844
安排	4845
▁dram	4846
建筑	4847
▁assess	4848
▁dark	4849
▁completed	4850
▁Hot	4851
▁miles	4852
Man	4853
▁Free	4854
▁spot	4855
▁foreign	4856
▁photo	4857
▁produced	4858
isation	4859
▁Scott	4860
ously	4861
hem	4862
▁African	4863
▁occur	4864
▁sometimes	4865
▁purchase	4866
▁Other	4867
▁Sum	4868
levision	4869
▁AP	4870
▁Nov	4871
mm	4872
▁polic	4873
ria	4874
▁Angeles	4875
生命	4876
▁double	4877
▁lay	4878
银行	4879
andemic	4880
▁Time	4881
▁Show	4882
▁critical	4883
▁mill	4884
▁Hel	4885
▁blood	4886
▁www	4887
log	4888
▁die	4889
fit	4890
▁Ham	4891
水平	4892
电子	4893
▁values	4894
▁prec	4895
媒体	4896
')	4897
需求	4898
正常	4899
销售	4900
▁Jo	4901
这样的	4902
▁Jew	4903
▁existing	4904
BS	4905
▁wall	4906
ady	4907
▁attend	4908
旅游	4909
orney	4910
▁UN	4911
▁followed	4912
▁Policy	4913
ер	4914
▁peace	4915
Don	4916
IG	4917
▁arrest	4918
edom	4919
▁voice	4920
▁apply	4921
经验	4922
▁audience	4923
▁entertain	4924
itely	4925
▁prices	4926
issions	4927
ifying	4928
▁helping	4929
不到	4930
iling	4931
创新	4932
▁correct	4933
▁lands	4934
RA	4935
ula	4936
主任	4937
date	4938
▁citiz	4939
▁Micro	4940
▁ST	4941
semb	4942
▁hundred	4943
ait	4944
▁passed	4945
igr	4946
orthern	4947
▁id	4948
▁Please	4949
▁offered	4950
▁aim	4951
▁effects	4952
▁dat	4953
Not	4954
▁joined	4955
oma	4956
itchen	4957
造成	4958
ette	4959
ref	4960
▁Central	4961
no	4962
ena	4963
▁scene	4964
erry	4965
yt	4966
▁Kore	4967
价值	4968
▁appe	4969
▁Lead	4970
▁virt	4971
mail	4972
iately	4973
▁church	4974
▁posted	4975
ii	4976
▁Week	4977
▁Tor	4978
▁sem	4979
▁reduce	4980
umber	4981
rd	4982
osition	4983
ano	4984
持续	4985
▁conv	4986
▁reb	4987
▁status	4988
考生	4989
▁activity	4990
▁researc	4991
▁doll	4992
▁load	4993
▁Christian	4994
pri	4995
决定	4996
▁brother	4997
▁Francis	4998
▁Pri	4999
目标	5000
▁trip	5001
▁coach	5002
mar	5003
adian	5004
▁cru	5005
uled	5006
▁Series	5007
▁Ins	5008
ented	5009
▁movement	5010
▁Virgin	5011
我们的	5012
▁Power	5013
ivery	5014
Next	5015
FL	5016
▁advert	5017
▁architect	5018
▁retail	5019
▁enh	5020
bt	5021
▁Chicago	5022
国内	5023
▁journey	5024
▁picture	5025
▁knew	5026
除了	5027
▁Social	5028
▁homes	5029
▁transfer	5030
iar	5031
▁Global	5032
▁strategy	5033
▁feet	5034
▁vote	5035
▁obtain	5036
▁rates	5037
▁trend	5038
法律	5039
ius	5040
hol	5041
疫苗	5042
▁nom	5043
erem	5044
edia	5045
参与	5046
更加	5047
▁Team	5048
▁thinking	5049
艺术	5050
ying	5051
完全	5052
汽车	5053
▁sch	5054
▁Centre	5055
▁Engine	5056
▁hour	5057
▁Union	5058
▁Then	5059
▁Robert	5060
OP	5061
▁About	5062
万元	5063
vention	5064
usband	5065
▁Grand	5066
anging	5067
gl	5068
一定要	5069
▁manager	5070
▁launched	5071
▁van	5072
▁advant	5073
行动	5074
范围	5075
▁train	5076
▁Family	5077
well	5078
ruit	5079
▁Fund	5080
▁Sk	5081
igned	5082
▁Av	5083
retary	5084
▁purpose	5085
▁note	5086
icks	5087
▁cris	5088
▁paint	5089
▁Offic	5090
有些	5091
▁powerful	5092
出了	5093
▁grant	5094
▁Elect	5095
works	5096
▁middle	5097
▁bur	5098
String	5099
pects	5100
ctors	5101
▁weight	5102
业务	5103
以后	5104
▁client	5105
▁frequ	5106
iny	5107
▁opened	5108
来了	5109
▁station	5110
clusive	5111
▁charge	5112
apter	5113
的大	5114
ania	5115
职业	5116
▁arr	5117
▁photos	5118
▁warm	5119
zer	5120
onent	5121
▁Div	5122
▁•	5123
state	5124
▁dang	5125
▁lines	5126
Me	5127
▁Brown	5128
严重	5129
▁supply	5130
orial	5131
▁Human	5132
▁temper	5133
ption	5134
▁poll	5135
▁Mont	5136
结合	5137
想要	5138
yan	5139
agon	5140
igan	5141
ini	5142
▁demonstr	5143
州市	5144
▁Russia	5145
▁comments	5146
▁compared	5147
hi	5148
接受	5149
▁Festival	5150
▁basis	5151
bour	5152
▁nice	5153
▁beg	5154
▁master	5155
▁Vis	5156
orter	5157
▁exactly	5158
经营	5159
▁Form	5160
▁Bi	5161
▁string	5162
▁vs	5163
▁records	5164
▁famous	5165
▁central	5166
▁except	5167
▁Tur	5168
OM	5169
▁il	5170
▁establish	5171
inner	5172
优秀	5173
▁passion	5174
▁Rad	5175
▁que	5176
▁devices	5177
TV	5178
▁pen	5179
▁daughter	5180
▁Well	5181
ala	5182
▁calls	5183
▁Econom	5184
推进	5185
▁anti	5186
▁executive	5187
▁Matt	5188
▁killed	5189
▁pressure	5190
life	5191
ped	5192
▁Down	5193
▁Sil	5194
▁error	5195
isf	5196
▁creative	5197
▁=>	5198
▁excellent	5199
SE	5200
有的	5201
▁gun	5202
ynam	5203
SA	5204
▁Internet	5205
心理	5206
▁thousands	5207
▁primary	5208
”“	5209
▁Enter	5210
▁skin	5211
▁cars	5212
看看	5213
opping	5214
购买	5215
▁announce	5216
gar	5217
imal	5218
最新	5219
▁proud	5220
▁letter	5221
中央	5222
▁rob	5223
nergy	5224
▁agreement	5225
空间	5226
▁spirit	5227
Us	5228
▁dedicated	5229
▁chief	5230
▁Wil	5231
口罩	5232
ears	5233
quest	5234
英语	5235
▁Even	5236
指导	5237
▁pet	5238
estic	5239
委员	5240
▁wait	5241
SP	5242
一种	5243
▁structure	5244
ella	5245
point	5246
▁Chief	5247
itude	5248
Over	5249
客户	5250
个月	5251
▁gh	5252
▁Love	5253
allery	5254
▁although	5255
▁List	5256
▁Town	5257
▁entry	5258
▁happened	5259
▁Germany	5260
▁recip	5261
资格	5262
▁produce	5263
▁ord	5264
▁Frank	5265
▁spend	5266
▁funds	5267
aming	5268
▁Det	5269
▁models	5270
Fr	5271
▁Step	5272
▁Tre	5273
▁despite	5274
▁myself	5275
▁Wood	5276
▁films	5277
▁advice	5278
▁incred	5279
▁signed	5280
▁straight	5281
▁har	5282
▁rent	5283
▁rank	5284
anda	5285
lymp	5286
▁scen	5287
witch	5288
▁setting	5289
▁loved	5290
▁Ir	5291
▁Bo	5292
▁views	5293
antic	5294
▁cry	5295
▁OF	5296
▁pages	5297
当然	5298
IR	5299
▁propos	5300
▁claims	5301
保险	5302
iment	5303
According	5304
也会	5305
resp	5306
▁Head	5307
":	5308
▁Champions	5309
ieces	5310
即可	5311
▁greater	5312
▁certainly	5313
方案	5314
▁Rights	5315
▁presented	5316
▁Bet	5317
▁Jul	5318
▁pandemic	5319
▁push	5320
word	5321
▁afford	5322
ocol	5323
执行	5324
▁shown	5325
mod	5326
Now	5327
aud	5328
asket	5329
bo	5330
▁prefer	5331
超过	5332
▁alone	5333
▁о	5334
▁Mer	5335
▁apprec	5336
dule	5337
thlet	5338
▁Atl	5339
▁measure	5340
rowd	5341
▁Tour	5342
igration	5343
Qu	5344
Go	5345
▁*/	5346
适合	5347
▁raised	5348
IF	5349
▁estim	5350
Te	5351
▁sort	5352
azz	5353
▁Awards	5354
going	5355
表现	5356
Add	5357
▁Security	5358
▁Iss	5359
▁Lake	5360
达到	5361
road	5362
About	5363
▁Mount	5364
▁Iran	5365
NA	5366
▁stress	5367
▁chem	5368
▁update	5369
机会	5370
itors	5371
▁EU	5372
调整	5373
▁fan	5374
▁Priv	5375
uration	5376
▁appropri	5377
ca	5378
look	5379
▁cities	5380
▁driving	5381
▁Data	5382
writ	5383
操作	5384
属于	5385
▁Invest	5386
▁runs	5387
▁Mel	5388
inate	5389
▁truly	5390
enture	5391
ipl	5392
▁mur	5393
▁income	5394
多少	5395
▁Vict	5396
▁Const	5397
利用	5398
TA	5399
fo	5400
系列	5401
olars	5402
▁End	5403
ideos	5404
▁machine	5405
▁purs	5406
but	5407
▁Why	5408
区域	5409
真正	5410
aters	5411
来越	5412
▁reasons	5413
▁Mass	5414
▁guide	5415
▁cash	5416
wise	5417
fig	5418
▁Louis	5419
▁Water	5420
eline	5421
▁wish	5422
不可	5423
ato	5424
Val	5425
也有	5426
疾病	5427
产生	5428
关键	5429
▁standards	5430
▁capacity	5431
iance	5432
▁agency	5433
▁Valley	5434
办公	5435
bol	5436
These	5437
asy	5438
lo	5439
越来越	5440
▁writer	5441
得到	5442
▁Er	5443
幸福	5444
rapy	5445
ita	5446
▁guid	5447
▁experts	5448
▁Russian	5449
▁eye	5450
pective	5451
imb	5452
▁regarding	5453
▁tit	5454
▁poor	5455
干部	5456
Up	5457
▁files	5458
aste	5459
年级	5460
设备	5461
形成	5462
EW	5463
车辆	5464
▁map	5465
etic	5466
▁Police	5467
Why	5468
▁Oh	5469
▁vision	5470
▁Sports	5471
▁Johnson	5472
itness	5473
print	5474
▁feeling	5475
irection	5476
inger	5477
▁reality	5478
▁glass	5479
LC	5480
▁district	5481
Do	5482
known	5483
ucle	5484
▁husband	5485
▁opin	5486
ен	5487
▁Many	5488
comp	5489
iler	5490
▁testing	5491
▁Since	5492
▁hotel	5493
▁cultural	5494
▁Bur	5495
top	5496
▁winning	5497
iminal	5498
oms	5499
▁Peter	5500
▁violence	5501
yth	5502
))	5503
GB	5504
uries	5505
▁Main	5506
▁internet	5507
▁normal	5508
▁Party	5509
▁Asia	5510
▁owner	5511
▁parties	5512
▁basic	5513
确诊	5514
记者	5515
▁Today	5516
roy	5517
friend	5518
PR	5519
正在	5520
▁Game	5521
用户	5522
burg	5523
▁committed	5524
ario	5525
▁patient	5526
▁weather	5527
▁unit	5528
▁Americans	5529
▁Thomas	5530
Su	5531
abilities	5532
▁compl	5533
power	5534
▁shall	5535
交流	5536
▁decades	5537
▁blue	5538
来自	5539
▁Medical	5540
ublished	5541
MS	5542
▁eth	5543
inem	5544
Dr	5545
▁focused	5546
td	5547
▁и	5548
onents	5549
经过	5550
▁essential	5551
▁interact	5552
▁trial	5553
uilding	5554
▁hair	5555
拥有	5556
aren	5557
里的	5558
udd	5559
Type	5560
▁harm	5561
▁volunte	5562
atively	5563
▁thanks	5564
LA	5565
ка	5566
▁NY	5567
▁fant	5568
▁sport	5569
▁gra	5570
▁Special	5571
阶段	5572
▁Den	5573
状态	5574
aling	5575
▁adding	5576
▁Mot	5577
▁Tim	5578
OW	5579
当时	5580
▁proced	5581
▁disapp	5582
MA	5583
▁healthy	5584
▁majority	5585
▁finished	5586
eless	5587
▁exerc	5588
phone	5589
直播	5590
▁becoming	5591
▁Prot	5592
专家	5593
▁Academy	5594
▁ang	5595
▁damage	5596
面积	5597
消息	5598
ias	5599
那些	5600
并且	5601
▁editor	5602
Americ	5603
Here	5604
▁elements	5605
ulty	5606
接种	5607
▁species	5608
abase	5609
▁pattern	5610
▁north	5611
农村	5612
▁sy	5613
OC	5614
▁==	5615
▁emb	5616
▁figure	5617
▁driver	5618
面试	5619
▁princip	5620
▁Paris	5621
▁void	5622
▁appeared	5623
▁gain	5624
▁esc	5625
▁gone	5626
▁Report	5627
▁Also	5628
妈妈	5629
不少	5630
▁Food	5631
▁aren	5632
▁closed	5633
▁micro	5634
▁Back	5635
二维	5636
▁Jose	5637
▁initial	5638
ogue	5639
ffee	5640
▁Windows	5641
症状	5642
▁seeing	5643
reme	5644
经常	5645
不知道	5646
让人	5647
▁IT	5648
▁struct	5649
▁larger	5650
▁eyes	5651
▁Spe	5652
Ed	5653
▁chair	5654
sk	5655
equ	5656
▁Ill	5657
emporary	5658
▁adopt	5659
cul	5660
pping	5661
▁Fre	5662
gn	5663
▁radio	5664
▁rare	5665
▁policies	5666
▁Earth	5667
▁Mur	5668
apers	5669
▁Western	5670
▁Olymp	5671
▁markets	5672
▁fashion	5673
reland	5674
▁Long	5675
▁repe	5676
▁pros	5677
▁crisis	5678
随着	5679
▁Martin	5680
▁Nor	5681
▁south	5682
▁reached	5683
oving	5684
▁length	5685
▁score	5686
下来	5687
共同	5688
owl	5689
▁Film	5690
▁approx	5691
ocation	5692
ker	5693
▁storage	5694
▁Canadian	5695
▁stuff	5696
ework	5697
▁youth	5698
二维码	5699
▁delivery	5700
ani	5701
▁Richard	5702
▁sched	5703
▁Last	5704
政治	5705
▁Indust	5706
unning	5707
▁context	5708
def	5709
▁sources	5710
riage	5711
▁absol	5712
的问题	5713
ua	5714
ultural	5715
▁Amazon	5716
orrow	5717
公告	5718
▁bath	5719
人才	5720
▁technical	5721
▁steps	5722
▁mechan	5723
▁window	5724
ва	5725
▁Network	5726
cher	5727
Can	5728
▁dress	5729
驾驶	5730
▁estate	5731
craft	5732
▁PC	5733
▁Fire	5734
▁Oper	5735
▁occas	5736
▁concerns	5737
Am	5738
▁selected	5739
irmed	5740
▁Aff	5741
▁Royal	5742
▁See	5743
▁officer	5744
▁showed	5745
▁facility	5746
cell	5747
▁couldn	5748
▁Jud	5749
▁CD	5750
确保	5751
▁rap	5752
▁vehicles	5753
变化	5754
▁copy	5755
▁thank	5756
hab	5757
▁solid	5758
▁psych	5759
之一	5760
就可以	5761
查看	5762
▁talking	5763
▁session	5764
abin	5765
atin	5766
night	5767
▁debut	5768
加入	5769
▁described	5770
▁drink	5771
▁Mexico	5772
su	5773
▁Jim	5774
SS	5775
▁Wall	5776
CE	5777
▁eval	5778
欢迎	5779
▁Land	5780
ENT	5781
▁gift	5782
▁brings	5783
▁Stat	5784
▁wed	5785
▁shop	5786
▁German	5787
▁на	5788
ternal	5789
reek	5790
▁looked	5791
是一个	5792
▁ban	5793
应用	5794
▁prison	5795
eder	5796
▁Virginia	5797
▁transl	5798
只能	5799
zen	5800
体验	5801
entially	5802
▁Energy	5803
▁Lear	5804
▁numerous	5805
Phone	5806
UL	5807
ipped	5808
oration	5809
▁excited	5810
▁Their	5811
小区	5812
电影	5813
rad	5814
▁trou	5815
▁Who	5816
方向	5817
全部	5818
omet	5819
女人	5820
ucky	5821
▁traffic	5822
▁brain	5823
▁mental	5824
是在	5825
▁lock	5826
▁rise	5827
▁strength	5828
▁plays	5829
▁caused	5830
▁sexual	5831
▁Chris	5832
▁links	5833
ooth	5834
▁accur	5835
▁Hospital	5836
inder	5837
▁Fort	5838
▁extremely	5839
elligence	5840
▁forces	5841
ups	5842
with	5843
▁operating	5844
▁Two	5845
▁counter	5846
Data	5847
相信	5848
isher	5849
DF	5850
▁neighbor	5851
▁citizens	5852
▁Georg	5853
▁fourth	5854
▁amb	5855
▁plus	5856
▁teaching	5857
全球	5858
▁older	5859
▁resident	5860
▁centre	5861
▁classic	5862
的情况	5863
▁secure	5864
▁toward	5865
acks	5866
▁heavy	5867
稳定	5868
▁cat	5869
▁spok	5870
ipping	5871
▁practices	5872
主动	5873
▁Saf	5874
▁advance	5875
▁Ep	5876
itage	5877
iques	5878
atically	5879
▁crowd	5880
▁sleep	5881
收入	5882
▁Library	5883
reate	5884
▁catch	5885
▁transform	5886
prene	5887
▁rich	5888
ao	5889
▁Carolina	5890
▁kept	5891
公共	5892
та	5893
传统	5894
▁finish	5895
▁thr	5896
▁restrict	5897
▁bul	5898
▁Way	5899
理解	5900
rick	5901
],	5902
▁batter	5903
▁easier	5904
采用	5905
Some	5906
▁learned	5907
fol	5908
However	5909
▁Lab	5910
inations	5911
illa	5912
ли	5913
▁female	5914
▁Arab	5915
新的	5916
atever	5917
reprene	5918
lies	5919
obe	5920
小编	5921
▁satisf	5922
▁infrast	5923
▁surface	5924
achel	5925
data	5926
人们	5927
▁Lee	5928
▁measures	5929
js	5930
sembly	5931
▁Games	5932
lywood	5933
任务	5934
▁beat	5935
то	5936
▁Ireland	5937
▁Sand	5938
▁Joe	5939
nel	5940
志愿	5941
模式	5942
无论	5943
▁visitors	5944
▁returned	5945
医生	5946
▁nine	5947
ola	5948
▁Middle	5949
▁girls	5950
▁Blue	5951
▁finding	5952
▁ing	5953
告诉	5954
▁perhaps	5955
意识	5956
▁gar	5957
▁lawy	5958
▁limit	5959
bar	5960
▁wonderful	5961
oria	5962
▁fram	5963
public	5964
▁Mat	5965
▁multi	5966
思想	5967
▁Whe	5968
▁cred	5969
对方	5970
▁TO	5971
减少	5972
明显	5973
▁Call	5974
▁guarant	5975
幼儿	5976
▁baby	5977
▁false	5978
while	5979
▁faith	5980
▁meant	5981
▁welcome	5982
enses	5983
▁injury	5984
▁Di	5985
eds	5986
ban	5987
icians	5988
▁Beach	5989
▁pictures	5990
oves	5991
身份	5992
▁According	5993
pected	5994
生态	5995
▁memory	5996
严格	5997
▁becomes	5998
cean	5999
网友	6000
▁Organ	6001
违法	6002
▁camera	6003
kins	6004
▁street	6005
▁package	6006
▁sharing	6007
▁monitor	6008
▁Justice	6009
▁cas	6010
如果你	6011
▁campus	6012
▁notice	6013
显示	6014
▁Jes	6015
▁forms	6016
最高	6017
▁appears	6018
arsh	6019
▁survey	6020
▁Professor	6021
▁Cath	6022
▁task	6023
▁spect	6024
领域	6025
▁Color	6026
▁contains	6027
▁noted	6028
力量	6029
rid	6030
回复	6031
Car	6032
mes	6033
▁Commun	6034
确定	6035
文明	6036
onav	6037
▁requires	6038
受到	6039
▁maybe	6040
bur	6041
oston	6042
▁appeal	6043
ри	6044
▁revealed	6045
▁anc	6046
▁Real	6047
▁drop	6048
▁advantage	6049
▁graph	6050
▁musical	6051
▁Boy	6052
▁ended	6053
▁conflic	6054
高考	6055
▁cloud	6056
▁Online	6057
iture	6058
unately	6059
▁changing	6060
▁controll	6061
rics	6062
日本	6063
▁managed	6064
工资	6065
不好	6066
接触	6067
▁array	6068
▁exciting	6069
▁instit	6070
▁decisions	6071
▁reli	6072
iat	6073
一个人	6074
ла	6075
避免	6076
▁cop	6077
面的	6078
HS	6079
▁Ro	6080
哪些	6081
▁battle	6082
▁During	6083
电视	6084
▁View	6085
▁Pac	6086
▁pieces	6087
我国	6088
▁Gal	6089
osure	6090
inct	6091
Rep	6092
最终	6093
武汉	6094
删除	6095
▁prepar	6096
iden	6097
▁fuel	6098
说明	6099
▁placed	6100
▁presence	6101
iency	6102
考虑	6103
ns	6104
▁susp	6105
CT	6106
▁leaving	6107
机关	6108
▁Senate	6109
▁manage	6110
iated	6111
door	6112
▁rac	6113
▁д	6114
▁heat	6115
anche	6116
▁actions	6117
oses	6118
▁advoc	6119
eries	6120
rehens	6121
▁showing	6122
▁supported	6123
path	6124
▁core	6125
党员	6126
▁operation	6127
▁Obama	6128
面对	6129
▁evening	6130
ses	6131
file	6132
道路	6133
▁methods	6134
▁pool	6135
uclear	6136
҈҉҉҉	6137
▁spring	6138
▁Author	6139
▁documents	6140
▁instr	6141
▁raise	6142
▁Young	6143
▁landsc	6144
团队	6145
onavirus	6146
▁impl	6147
Previous	6148
▁emergency	6149
▁obvious	6150
▁fell	6151
过程中	6152
▁Rev	6153
经历	6154
▁brief	6155
▁academic	6156
▁animals	6157
▁advanced	6158
▁explore	6159
参考	6160
▁movies	6161
▁Penn	6162
▁agree	6163
丰富	6164
▁issued	6165
▁direction	6166
▁housing	6167
▁Chair	6168
ки	6169
▁Live	6170
ograp	6171
ionals	6172
▁Old	6173
▁visual	6174
▁Haw	6175
▁Som	6176
儿童	6177
▁row	6178
MP	6179
osen	6180
▁Mike	6181
espite	6182
ishes	6183
计算	6184
agged	6185
食品	6186
▁Ver	6187
othing	6188
▁Microsoft	6189
▁covered	6190
▁Jones	6191
▁Its	6192
办理	6193
▁kitchen	6194
ione	6195
保证	6196
▁Men	6197
uke	6198
▁minor	6199
员工	6200
▁sea	6201
▁Any	6202
改变	6203
Mod	6204
▁Uk	6205
▁spending	6206
▁nav	6207
itz	6208
lt	6209
▁Cy	6210
orters	6211
▁Photo	6212
liament	6213
感情	6214
调查	6215
▁Test	6216
▁Lim	6217
ль	6218
建立	6219
▁craft	6220
▁ship	6221
▁articles	6222
▁efficient	6223
就业	6224
都不	6225
▁Executive	6226
▁bottom	6227
▁mist	6228
▁selection	6229
inating	6230
url	6231
▁Williams	6232
▁defense	6233
ersey	6234
▁buildings	6235
acement	6236
▁diagn	6237
▁Die	6238
west	6239
urer	6240
ervice	6241
▁Administ	6242
▁%	6243
符合	6244
隔离	6245
▁coverage	6246
Last	6247
▁joint	6248
过去	6249
▁element	6250
而是	6251
Ob	6252
▁corporate	6253
办法	6254
证明	6255
遇到	6256
▁Aud	6257
plate	6258
▁rule	6259
集中	6260
pload	6261
▁terror	6262
clusion	6263
aven	6264
Rec	6265
▁scale	6266
▁spl	6267
▁coast	6268
习惯	6269
▁actual	6270
SC	6271
▁Tri	6272
▁Dev	6273
▁nut	6274
▁recorded	6275
aturing	6276
性的	6277
▁murder	6278
Mar	6279
abled	6280
▁classes	6281
广大	6282
▁relevant	6283
▁Hen	6284
▁knows	6285
ading	6286
▁proposed	6287
iana	6288
▁serving	6289
出的	6290
▁Jeff	6291
针对	6292
▁fol	6293
ora	6294
目的	6295
▁onto	6296
▁ir	6297
年轻	6298
▁situ	6299
▁motor	6300
▁factors	6301
va	6302
▁Children	6303
▁separate	6304
提醒	6305
▁starts	6306
▁Each	6307
快乐	6308
▁Wild	6309
推动	6310
▁Federal	6311
da	6312
版权	6313
样的	6314
arts	6315
▁updated	6316
▁Squ	6317
using	6318
如此	6319
正式	6320
lines	6321
高速	6322
▁我	6323
▁crime	6324
▁identify	6325
▁worldwide	6326
▁stars	6327
▁videos	6328
urban	6329
rate	6330
▁column	6331
行政	6332
▁calling	6333
▁slight	6334
▁veter	6335
▁Trust	6336
▁Gen	6337
▁episode	6338
▁failed	6339
结构	6340
");	6341
gers	6342
overy	6343
招生	6344
▁listed	6345
快速	6346
以来	6347
▁Lo	6348
var	6349
▁cold	6350
▁married	6351
医学	6352
▁shut	6353
▁hearing	6354
▁Cast	6355
▁spons	6356
▁border	6357
智能	6358
▁Islam	6359
arks	6360
▁Card	6361
▁dry	6362
▁performed	6363
Form	6364
皮肤	6365
▁sets	6366
▁haven	6367
一天	6368
eler	6369
每个	6370
▁Stand	6371
▁Prov	6372
▁icon	6373
▁labor	6374
▁shares	6375
▁holiday	6376
▁furn	6377
prise	6378
▁officers	6379
▁Jon	6380
做到	6381
poration	6382
主义	6383
▁missing	6384
▁incor	6385
▁Dou	6386
中华	6387
长期	6388
pan	6389
▁在	6390
▁remove	6391
▁wear	6392
Int	6393
▁justice	6394
hew	6395
▁ID	6396
▁Pan	6397
▁adapt	6398
▁hy	6399
iano	6400
▁flow	6401
▁bringing	6402
▁happens	6403
很多人	6404
asketball	6405
就能	6406
hand	6407
▁inspired	6408
▁adjust	6409
▁util	6410
▁units	6411
▁fab	6412
▁item	6413
▁winter	6414
▁studio	6415
登记	6416
▁metal	6417
▁fear	6418
▁©	6419
居民	6420
广东	6421
idden	6422
ре	6423
▁eat	6424
▁schedule	6425
形式	6426
明确	6427
▁CA	6428
现代	6429
位置	6430
▁truth	6431
▁ice	6432
▁boost	6433
osis	6434
▁rat	6435
▁hab	6436
▁flex	6437
结束	6438
▁Prem	6439
▁server	6440
Comp	6441
inding	6442
山东	6443
aks	6444
ansion	6445
▁Adv	6446
学历	6447
▁String	6448
▁Sar	6449
($	6450
▁keeping	6451
anish	6452
▁button	6453
Posted	6454
ansas	6455
成了	6456
▁Charl	6457
▁confirmed	6458
▁charges	6459
iced	6460
▁Andrew	6461
▁Sup	6462
▁locations	6463
▁watching	6464
includ	6465
mary	6466
提前	6467
OD	6468
stra	6469
特色	6470
▁plants	6471
▁influence	6472
mond	6473
ixt	6474
▁Bob	6475
Pr	6476
ulations	6477
olit	6478
尤其	6479
icious	6480
▁panel	6481
▁determine	6482
John	6483
▁dig	6484
打造	6485
II	6486
音乐	6487
po	6488
▁valid	6489
▁listen	6490
iner	6491
ribute	6492
▁prepared	6493
▁earth	6494
▁Exper	6495
alled	6496
金融	6497
劳动	6498
rant	6499
▁Season	6500
许多	6501
gu	6502
akistan	6503
▁Scot	6504
▁Use	6505
▁Like	6506
会有	6507
▁univers	6508
▁vac	6509
▁reviews	6510
astern	6511
▁Niger	6512
script	6513
▁weap	6514
地址	6515
zy	6516
制度	6517
▁lots	6518
Mr	6519
促进	6520
首先	6521
并不	6522
▁instruct	6523
▁allowing	6524
▁religious	6525
▁Watch	6526
取得	6527
▁highlight	6528
▁solar	6529
▁Jun	6530
▁Francisco	6531
▁lived	6532
▁ec	6533
perty	6534
andom	6535
▁wouldn	6536
▁protected	6537
▁urg	6538
事情	6539
▁fif	6540
▁Digital	6541
▁investors	6542
aylor	6543
▁ven	6544
▁throw	6545
eria	6546
▁explain	6547
odies	6548
▁consumers	6549
压力	6550
▁Mov	6551
新冠肺炎	6552
Comm	6553
▁dance	6554
▁teacher	6555
▁balance	6556
▁Michigan	6557
▁generally	6558
▁config	6559
成立	6560
▁ton	6561
▁Phot	6562
▁approved	6563
▁renew	6564
男人	6565
usion	6566
▁regional	6567
▁Army	6568
成长	6569
▁depend	6570
▁featured	6571
▁hero	6572
▁occup	6573
也可以	6574
增长	6575
▁freedom	6576
▁useful	6577
▁instance	6578
▁therefore	6579
让你	6580
▁Writ	6581
▁lit	6582
联合	6583
ression	6584
▁Boston	6585
▁Japanese	6586
ati	6587
▁Studies	6588
▁RE	6589
充分	6590
都在	6591
tenance	6592
▁forced	6593
▁format	6594
▁pair	6595
▁revenue	6596
ownt	6597
▁shape	6598
▁Hor	6599
观察	6600
▁Look	6601
▁waiting	6602
认真	6603
asure	6604
encing	6605
深入	6606
Please	6607
▁Ken	6608
▁brows	6609
▁Columb	6610
paper	6611
优势	6612
▁dynam	6613
iration	6614
▁resist	6615
ais	6616
施工	6617
rier	6618
数学	6619
资金	6620
▁command	6621
▁criminal	6622
▁sty	6623
▁ment	6624
▁plenty	6625
▁island	6626
▁Polit	6627
ta	6628
▁critic	6629
交易	6630
高中	6631
▁Product	6632
▁cells	6633
线上	6634
▁sequ	6635
▁surg	6636
rical	6637
nam	6638
▁Thanks	6639
▁Although	6640
▁coord	6641
sen	6642
一年	6643
▁kick	6644
网上	6645
那个	6646
▁upcoming	6647
free	6648
▁flight	6649
▁victory	6650
dated	6651
isters	6652
的时间	6653
TC	6654
▁teachers	6655
▁promote	6656
ancer	6657
值得	6658
肯定	6659
▁pod	6660
▁jump	6661
▁Instagram	6662
距离	6663
主题	6664
▁ign	6665
▁Wal	6666
▁tro	6667
如有	6668
May	6669
▁winner	6670
kl	6671
irms	6672
▁connected	6673
és	6674
▁hundreds	6675
▁bird	6676
from	6677
BI	6678
▁construct	6679
Sub	6680
犯罪	6681
▁Charles	6682
心的	6683
type	6684
verse	6685
▁holds	6686
##	6687
▁advis	6688
▁decade	6689
另外	6690
恢复	6691
分别	6692
▁stated	6693
▁Theatre	6694
▁Ari	6695
▁Max	6696
ja	6697
▁Id	6698
ulated	6699
高校	6700
can	6701
ye	6702
Inter	6703
▁whom	6704
Photo	6705
▁tree	6706
essions	6707
▁mostly	6708
▁secret	6709
▁accident	6710
▁·	6711
▁Donald	6712
ployment	6713
ulate	6714
eller	6715
▁doctor	6716
公开	6717
secut	6718
程序	6719
认识	6720
SU	6721
▁smaller	6722
hent	6723
bec	6724
▁Coll	6725
Every	6726
实验	6727
一切	6728
▁tele	6729
▁village	6730
▁theme	6731
▁AL	6732
under	6733
▁clearly	6734
▁behavior	6735
****	6736
新增	6737
▁earned	6738
▁breat	6739
工作人员	6740
AG	6741
▁dial	6742
▁Anal	6743
▁guys	6744
▁Connect	6745
First	6746
▁seeking	6747
▁Log	6748
▁Check	6749
▁leads	6750
eech	6751
▁phil	6752
▁Space	6753
elly	6754
▁alleged	6755
▁Secretary	6756
▁rain	6757
年龄	6758
ba	6759
ón	6760
▁handle	6761
utely	6762
rehensive	6763
▁Night	6764
Just	6765
▁feels	6766
▁payment	6767
食物	6768
最近	6769
▁Van	6770
▁Zeal	6771
▁Jackson	6772
▁Master	6773
▁edition	6774
是什么	6775
▁square	6776
▁Coast	6777
▁affected	6778
▁beauty	6779
▁depart	6780
ournament	6781
▁Ell	6782
▁agreed	6783
iversary	6784
▁Italy	6785
▁predict	6786
答案	6787
▁committee	6788
▁virus	6789
审核	6790
▁politics	6791
▁Hon	6792
培养	6793
▁fill	6794
▁stores	6795
▁ideal	6796
▁programme	6797
▁rapid	6798
pat	6799
▁Force	6800
▁sounds	6801
▁IP	6802
▁museum	6803
ommod	6804
▁awards	6805
elines	6806
营养	6807
▁Girl	6808
▁fish	6809
后的	6810
▁Light	6811
related	6812
身边	6813
▁Person	6814
满足	6815
▁illust	6816
▁tend	6817
bi	6818
▁input	6819
▁talent	6820
多的	6821
▁exchange	6822
och	6823
十分	6824
ador	6825
Che	6826
▁coffee	6827
▁shooting	6828
▁conven	6829
▁notes	6830
▁Medicine	6831
ship	6832
adium	6833
FA	6834
▁Division	6835
▁explained	6836
▁Dom	6837
forcement	6838
sm	6839
改革	6840
▁library	6841
▁по	6842
▁apart	6843
▁somew	6844
▁Bas	6845
制作	6846
stein	6847
▁href	6848
▁corner	6849
▁Foot	6850
几个	6851
▁proceed	6852
▁org	6853
▁negot	6854
▁diverse	6855
▁guests	6856
下的	6857
▁Walk	6858
abel	6859
统一	6860
▁Tem	6861
cks	6862
uan	6863
▁speech	6864
▁league	6865
ghan	6866
当地	6867
▁Zealand	6868
See	6869
▁magn	6870
asks	6871
▁optim	6872
农业	6873
▁gather	6874
FC	6875
▁fra	6876
▁pil	6877
▁crew	6878
▁arrang	6879
ingly	6880
日常	6881
后来	6882
▁delivered	6883
▁detect	6884
df	6885
▁script	6886
merce	6887
etime	6888
▁Once	6889
▁flu	6890
不错	6891
▁Pay	6892
街道	6893
outs	6894
▁Make	6895
▁identity	6896
igen	6897
监督	6898
▁Page	6899
▁distance	6900
▁AND	6901
传播	6902
▁agencies	6903
▁putting	6904
uable	6905
▁category	6906
▁adults	6907
return	6908
profit	6909
rees	6910
先生	6911
▁lose	6912
▁combined	6913
▁san	6914
▁processes	6915
ih	6916
ло	6917
▁Ma	6918
istration	6919
▁wedding	6920
▁kid	6921
商业	6922
cho	6923
▁selling	6924
Of	6925
ga	6926
▁Gra	6927
▁Win	6928
▁Brook	6929
▁cards	6930
gment	6931
▁Prime	6932
▁interests	6933
▁greatest	6934
▁domestic	6935
Class	6936
▁Android	6937
整个	6938
▁Support	6939
▁reference	6940
Inst	6941
大量	6942
▁honor	6943
▁Mid	6944
▁Gar	6945
享受	6946
▁Set	6947
how	6948
Follow	6949
string	6950
razil	6951
立即	6952
▁shel	6953
都能	6954
phas	6955
Pe	6956
onom	6957
lig	6958
▁fields	6959
▁ongoing	6960
侵权	6961
▁Southern	6962
方便	6963
▁Disney	6964
pack	6965
▁awarded	6966
本文	6967
ura	6968
BO	6969
▁updates	6970
天气	6971
中学	6972
TH	6973
raine	6974
ampion	6975
▁brands	6976
▁decor	6977
▁returns	6978
▁otherwise	6979
体系	6980
ounsel	6981
▁null	6982
▁output	6983
▁Ltd	6984
athan	6985
▁massive	6986
▁upgr	6987
xy	6988
▁fle	6989
Dis	6990
onto	6991
aser	6992
支付	6993
ERS	6994
iders	6995
来看	6996
新型	6997
▁witness	6998
PC	6999
ensions	7000
▁founded	7001
▁tests	7002
▁charged	7003
▁compar	7004
▁Georgia	7005
▁Equ	7006
oles	7007
引起	7008
▁indic	7009
▁Jr	7010
▁guitar	7011
uthors	7012
亿元	7013
▁м	7014
ocument	7015
American	7016
公里	7017
▁favour	7018
ums	7019
困难	7020
▁resol	7021
Tube	7022
ilit	7023
▁da	7024
oted	7025
▁grew	7026
在线	7027
真实	7028
体育	7029
不了	7030
技能	7031
▁km	7032
▁Mic	7033
▁snow	7034
▁mentioned	7035
▁arts	7036
▁Daniel	7037
不用	7038
▁familiar	7039
▁thus	7040
▁Govern	7041
▁virtual	7042
▁accompl	7043
▁rom	7044
费用	7045
hr	7046
女性	7047
▁consumer	7048
工业	7049
▁planned	7050
▁uns	7051
EST	7052
pet	7053
amm	7054
ician	7055
▁sand	7056
▁attacks	7057
edu	7058
▁Supreme	7059
▁begins	7060
规范	7061
▁label	7062
lights	7063
▁cookies	7064
Since	7065
uzz	7066
▁historic	7067
▁native	7068
▁rail	7069
▁Ohio	7070
▁Because	7071
的事情	7072
News	7073
▁unc	7074
Des	7075
▁filed	7076
▁scheduled	7077
kes	7078
▁Fair	7079
文字	7080
▁internal	7081
▁expertise	7082
▁tech	7083
▁athlet	7084
▁professor	7085
▁Guide	7086
▁Britain	7087
▁talks	7088
训练	7089
▁pip	7090
▁serves	7091
▁Korea	7092
精彩	7093
test	7094
▁tow	7095
软件	7096
▁Story	7097
▁sweet	7098
▁tells	7099
apore	7100
▁_	7101
▁resource	7102
设置	7103
▁tickets	7104
PM	7105
▁clinical	7106
意义	7107
▁flo	7108
家人	7109
▁champions	7110
▁reform	7111
▁opinion	7112
▁Through	7113
▁passeng	7114
▁carbon	7115
不管	7116
evin	7117
▁minute	7118
rc	7119
];	7120
▁asking	7121
青年	7122
▁Pacific	7123
▁Video	7124
rooms	7125
▁guy	7126
▁Kar	7127
respond	7128
程度	7129
▁animal	7130
找到	7131
▁Second	7132
工作的	7133
asters	7134
des	7135
▁forest	7136
学会	7137
运营	7138
▁Kim	7139
ffect	7140
Reg	7141
▁shopping	7142
ylv	7143
▁Pop	7144
▁Steve	7145
ennis	7146
生物	7147
▁bright	7148
abeth	7149
▁Ext	7150
家里	7151
▁enjoyed	7152
总是	7153
公布	7154
▁database	7155
她的	7156
▁waste	7157
ulner	7158
▁Lord	7159
’,	7160
▁facing	7161
Art	7162
icial	7163
Top	7164
andon	7165
▁Roman	7166
▁Catholic	7167
开放	7168
▁bra	7169
到底	7170
▁decide	7171
▁Pakistan	7172
民警	7173
osc	7174
▁McC	7175
情绪	7176
▁stick	7177
▁unf	7178
amin	7179
▁teen	7180
广告	7181
测试	7182
▁lux	7183
king	7184
wan	7185
网站	7186
▁actor	7187
福利	7188
▁garden	7189
▁candidate	7190
otic	7191
▁tom	7192
▁incident	7193
▁aid	7194
▁bound	7195
▁Hy	7196
▁Italian	7197
actions	7198
如下	7199
▁willing	7200
▁accommod	7201
alle	7202
设施	7203
▁leaves	7204
gypt	7205
中医	7206
▁conducted	7207
▁privacy	7208
整体	7209
降低	7210
osoph	7211
▁err	7212
rig	7213
▁Jersey	7214
Co	7215
▁static	7216
▁minimum	7217
mosp	7218
▁iPhone	7219
▁Ol	7220
▁rooms	7221
cles	7222
noon	7223
▁loan	7224
▁encourage	7225
▁forget	7226
ushed	7227
▁holding	7228
▁Spring	7229
water	7230
法院	7231
raq	7232
▁confident	7233
语言	7234
kin	7235
委员会	7236
real	7237
▁Jewish	7238
▁repair	7239
▁whatever	7240
▁applied	7241
▁seat	7242
▁scored	7243
▁cooper	7244
▁tough	7245
意见	7246
▁accounts	7247
Book	7248
▁administr	7249
▁Staff	7250
▁millions	7251
▁Manager	7252
▁cerem	7253
识别	7254
esterday	7255
lix	7256
▁circum	7257
死亡	7258
▁dollars	7259
深圳	7260
▁一	7261
itutional	7262
▁worksh	7263
▁Spanish	7264
▁Know	7265
lyn	7266
▁posts	7267
正确	7268
▁marriage	7269
ali	7270
▁bond	7271
▁height	7272
发挥	7273
▁wine	7274
记录	7275
Jan	7276
▁index	7277
RC	7278
依法	7279
▁Little	7280
▁enable	7281
▁Liber	7282
▁ride	7283
▁council	7284
▁Sign	7285
rome	7286
urd	7287
▁swe	7288
用于	7289
酒店	7290
▁defend	7291
▁readers	7292
采取	7293
reens	7294
▁MP	7295
的高	7296
▁Cross	7297
fast	7298
icket	7299
▁TH	7300
Time	7301
▁Pass	7302
▁route	7303
注册	7304
▁owned	7305
自身	7306
数字	7307
特殊	7308
添加	7309
▁gender	7310
stream	7311
▁featuring	7312
aked	7313
ifts	7314
▁debt	7315
ographic	7316
lock	7317
legal	7318
感谢	7319
▁detailed	7320
function	7321
成本	7322
▁volume	7323
▁android	7324
核心	7325
本科	7326
▁carried	7327
▁exercise	7328
icit	7329
uous	7330
aduate	7331
▁seconds	7332
ле	7333
▁scholars	7334
爱情	7335
essage	7336
▁draft	7337
▁era	7338
下午	7339
▁arm	7340
▁pun	7341
▁follows	7342
ighter	7343
▁tradition	7344
iest	7345
▁employee	7346
oster	7347
▁з	7348
EP	7349
事故	7350
▁default	7351
▁wealth	7352
▁filled	7353
▁Access	7354
▁Northern	7355
▁honest	7356
▁Queen	7357
gs	7358
bridge	7359
ello	7360
▁provider	7361
avor	7362
Image	7363
user	7364
▁doubt	7365
oral	7366
ads	7367
▁county	7368
poses	7369
те	7370
iti	7371
▁aspects	7372
====	7373
▁fat	7374
▁installed	7375
illy	7376
有了	7377
官方	7378
▁Sciences	7379
▁pal	7380
▁warn	7381
▁negative	7382
inois	7383
iary	7384
sey	7385
▁arrested	7386
自动	7387
▁Both	7388
▁chain	7389
大多	7390
▁relax	7391
▁Ap	7392
▁Jesus	7393
▁figures	7394
领取	7395
aded	7396
▁steel	7397
位于	7398
▁quant	7399
▁maximum	7400
▁Kingdom	7401
▁tun	7402
▁courses	7403
Home	7404
ingu	7405
esome	7406
covery	7407
eper	7408
掌握	7409
市民	7410
▁extensive	7411
▁drivers	7412
▁Have	7413
▁defe	7414
▁abuse	7415
▁elim	7416
▁Creat	7417
▁roof	7418
▁signs	7419
Source	7420
▁ON	7421
▁mort	7422
▁creation	7423
▁Rest	7424
▁trees	7425
▁perman	7426
▁Find	7427
必要	7428
rete	7429
anger	7430
给你	7431
是不是	7432
inst	7433
rite	7434
El	7435
inton	7436
▁DC	7437
▁edge	7438
宝宝	7439
子的	7440
adel	7441
▁singer	7442
▁emphas	7443
▁infect	7444
▁attorney	7445
▁seemed	7446
lication	7447
▁Luc	7448
run	7449
▁chemical	7450
▁drugs	7451
▁alongside	7452
php	7453
ether	7454
▁graduate	7455
orders	7456
rum	7457
▁Next	7458
▁fellow	7459
▁assets	7460
▁motiv	7461
▁disp	7462
是一种	7463
高的	7464
▁removed	7465
urers	7466
配合	7467
ouston	7468
fe	7469
▁thoughts	7470
▁Cov	7471
which	7472
owa	7473
AB	7474
▁Kn	7475
obs	7476
▁Kh	7477
▁roles	7478
inson	7479
防护	7480
Your	7481
最好	7482
▁dim	7483
▁Contact	7484
value	7485
▁magazine	7486
rich	7487
民族	7488
▁belong	7489
原则	7490
▁sav	7491
Tags	7492
estyle	7493
hire	7494
▁storm	7495
▁arrived	7496
▁Fox	7497
▁concerned	7498
▁festival	7499
DS	7500
最大	7501
▁concent	7502
女生	7503
合同	7504
▁Start	7505
▁Custom	7506
▁recovery	7507
的心	7508
▁Sher	7509
河南	7510
▁Joseph	7511
▁hyd	7512
毕竟	7513
▁Daily	7514
里面	7515
link	7516
规模	7517
▁intended	7518
page	7519
带来	7520
▁expensive	7521
ocket	7522
▁improved	7523
▁Taylor	7524
▁guess	7525
amil	7526
comm	7527
▁Hollywood	7528
▁Hotel	7529
ossible	7530
▁sister	7531
▁Harris	7532
▁switch	7533
▁profile	7534
▁fort	7535
▁info	7536
▁minister	7537
▁bought	7538
▁Broad	7539
agues	7540
span	7541
▁victims	7542
otal	7543
izabeth	7544
▁Po	7545
▁shift	7546
▁Ren	7547
▁Brazil	7548
▁nuclear	7549
▁conflict	7550
news	7551
增强	7552
long	7553
动车	7554
nic	7555
▁enhance	7556
▁matters	7557
ferences	7558
▁Country	7559
▁Ford	7560
code	7561
今日	7562
Par	7563
实践	7564
EX	7565
▁Radio	7566
▁Follow	7567
等等	7568
合理	7569
▁parking	7570
uses	7571
jo	7572
born	7573
▁democr	7574
▁supports	7575
ifer	7576
▁celebrate	7577
▁Kong	7578
的好	7579
▁caught	7580
▁Ram	7581
Let	7582
isk	7583
osit	7584
▁household	7585
▁Biden	7586
sole	7587
联网	7588
law	7589
";	7590
▁Cost	7591
▁beach	7592
▁tack	7593
да	7594
▁Point	7595
parent	7596
acle	7597
▁Irish	7598
▁walking	7599
▁dangerous	7600
评价	7601
apes	7602
olar	7603
回家	7604
涉及	7605
录取	7606
▁sides	7607
▁strategic	7608
unting	7609
▁channel	7610
cohol	7611
▁Gh	7612
RI	7613
cknow	7614
▁friendly	7615
根本	7616
▁vulner	7617
▁typically	7618
▁moments	7619
▁directed	7620
▁covers	7621
▁narr	7622
党委	7623
content	7624
CL	7625
▁consequ	7626
永远	7627
▁fee	7628
▁Iraq	7629
▁tips	7630
▁Cur	7631
Part	7632
Other	7633
理论	7634
▁risks	7635
elled	7636
uster	7637
的工作	7638
Er	7639
osa	7640
▁Partners	7641
机制	7642
NS	7643
▁YouTube	7644
umer	7645
▁believes	7646
▁Full	7647
确诊病例	7648
ican	7649
湖北	7650
fin	7651
可是	7652
px	7653
的地方	7654
▁Officer	7655
phy	7656
变得	7657
▁ran	7658
▁fighting	7659
▁reporting	7660
bury	7661
▁buying	7662
▁Ur	7663
orough	7664
eting	7665
▁positions	7666
otes	7667
▁Tal	7668
▁Hom	7669
AF	7670
▁Vill	7671
孩子的	7672
▁Far	7673
这次	7674
在一起	7675
▁involve	7676
提出	7677
▁execut	7678
▁apparent	7679
');	7680
▁Song	7681
还要	7682
▁estimated	7683
▁afternoon	7684
▁Son	7685
anna	7686
报考	7687
文件	7688
▁у	7689
▁functions	7690
▁Take	7691
ifications	7692
▁recover	7693
iki	7694
▁`	7695
时期	7696
▁attended	7697
iami	7698
▁flat	7699
во	7700
▁Colorado	7701
核酸	7702
▁Op	7703
感受	7704
apping	7705
anges	7706
▁spaces	7707
itals	7708
▁Privacy	7709
▁wire	7710
burgh	7711
召开	7712
有什么	7713
▁Ent	7714
▁remaining	7715
▁receiving	7716
utch	7717
▁Sus	7718
ordan	7719
▁mand	7720
▁apps	7721
iveness	7722
▁providers	7723
ui	7724
aped	7725
index	7726
ucks	7727
Em	7728
他们的	7729
▁awareness	7730
▁fees	7731
智慧	7732
arry	7733
伙伴	7734
▁NFL	7735
重大	7736
Out	7737
▁ce	7738
优惠	7739
case	7740
isa	7741
▁slightly	7742
▁cart	7743
▁Ministry	7744
▁sam	7745
erts	7746
)(	7747
▁adm	7748
utation	7749
rency	7750
pret	7751
▁sympt	7752
▁Sea	7753
的重要	7754
▁audio	7755
resents	7756
人数	7757
▁Circ	7758
tainment	7759
▁colle	7760
▁Stan	7761
▁plastic	7762
▁purposes	7763
▁spoke	7764
近日	7765
▁judge	7766
▁mail	7767
▁fold	7768
以为	7769
owntown	7770
▁Ter	7771
▁Financial	7772
▁stands	7773
▁Action	7774
▁urban	7775
人体	7776
幼儿园	7777
umes	7778
rence	7779
▁exec	7780
OU	7781
▁Cook	7782
pass	7783
erman	7784
晚上	7785
VD	7786
▁CH	7787
▁Singapore	7788
cm	7789
▁symbol	7790
▁emotional	7791
▁medium	7792
▁deals	7793
▁twice	7794
▁Assist	7795
During	7796
▁Code	7797
▁Civil	7798
▁prepare	7799
更新	7800
▁cro	7801
▁visiting	7802
比赛	7803
CD	7804
▁evalu	7805
▁turns	7806
▁coal	7807
往往	7808
▁Mill	7809
下面	7810
声明	7811
▁concert	7812
active	7813
照片	7814
ela	7815
▁Ryan	7816
Will	7817
▁atmosp	7818
ribe	7819
▁herself	7820
▁debate	7821
▁flood	7822
自我	7823
▁divid	7824
预防	7825
▁topic	7826
level	7827
用的	7828
▁hopes	7829
▁vaccine	7830
▁à	7831
▁Hard	7832
▁houses	7833
ko	7834
▁inn	7835
▁Jac	7836
证书	7837
State	7838
▁prote	7839
开学	7840
三个	7841
经典	7842
Per	7843
▁believed	7844
▁grown	7845
%)	7846
udden	7847
▁topics	7848
▁male	7849
▁license	7850
场所	7851
▁retire	7852
holders	7853
老人	7854
▁formed	7855
▁von	7856
hus	7857
erg	7858
▁na	7859
front	7860
found	7861
arp	7862
▁Egypt	7863
PD	7864
突然	7865
记得	7866
▁Perform	7867
提示	7868
▁closer	7869
▁aircraft	7870
▁liber	7871
▁ancient	7872
日起	7873
iro	7874
各地	7875
▁equal	7876
iamond	7877
▁Ash	7878
▁causes	7879
▁menu	7880
▁nor	7881
自由	7882
asingly	7883
Value	7884
Sec	7885
才是	7886
成员	7887
▁ped	7888
▁Airport	7889
▁Toronto	7890
▁Tech	7891
▁stret	7892
star	7893
下载	7894
pir	7895
iors	7896
▁conclud	7897
▁Blog	7898
▁delight	7899
не	7900
▁guest	7901
sub	7902
▁Rod	7903
▁Fac	7904
Ass	7905
aron	7906
句话	7907
事件	7908
▁Field	7909
在看	7910
▁fly	7911
▁fantastic	7912
▁Agency	7913
上了	7914
▁bag	7915
▁landscape	7916
▁worry	7917
▁circumst	7918
▁kill	7919
▁Fact	7920
打开	7921
inds	7922
▁failure	7923
zona	7924
每一	7925
▁ast	7926
Text	7927
▁wat	7928
▁discl	7929
▁Capital	7930
▁smooth	7931
uma	7932
uling	7933
▁elig	7934
作业	7935
▁calcul	7936
对象	7937
▁acknow	7938
▁au	7939
Key	7940
▁Spain	7941
明白	7942
▁mit	7943
▁suit	7944
完善	7945
fil	7946
还能	7947
▁Sky	7948
累计	7949
▁bigger	7950
cious	7951
▁busy	7952
CS	7953
▁shock	7954
▁goods	7955
▁Conc	7956
▁trading	7957
▁Four	7958
浙江	7959
▁Control	7960
▁Illinois	7961
Test	7962
于是	7963
▁submit	7964
▁platforms	7965
▁surprise	7966
如今	7967
ти	7968
bro	7969
foot	7970
▁compos	7971
▁Only	7972
then	7973
erves	7974
更是	7975
▁faster	7976
▁Carl	7977
▁complic	7978
▁Kenn	7979
rovers	7980
ATION	7981
▁theory	7982
沟通	7983
▁Nick	7984
工具	7985
▁syn	7986
▁Histor	7987
▁battery	7988
Click	7989
▁Hand	7990
速度	7991
stone	7992
▁marg	7993
▁Kent	7994
▁ends	7995
Are	7996
▁Vice	7997
lets	7998
▁unless	7999
有点	8000
再次	8001
▁designs	8002
▁AR	8003
请联系	8004
日报	8005
aine	8006
▁west	8007
▁founder	8008
▁chosen	8009
▁extended	8010
▁pregn	8011
▁surgery	8012
▁contest	8013
▁territ	8014
▁standing	8015
asts	8016
▁colour	8017
anchester	8018
ji	8019
消毒	8020
地点	8021
Ge	8022
▁wer	8023
相对	8024
rawn	8025
erver	8026
endar	8027
▁Guard	8028
▁frame	8029
Most	8030
Gl	8031
uts	8032
flix	8033
▁agent	8034
▁Area	8035
▁injuries	8036
本次	8037
▁Local	8038
▁ingred	8039
▁colors	8040
etry	8041
Many	8042
quir	8043
表达	8044
Act	8045
▁agric	8046
▁planet	8047
确实	8048
Gener	8049
▁vital	8050
ila	8051
动物	8052
▁Expl	8053
▁Labor	8054
▁explains	8055
▁Again	8056
每日	8057
uality	8058
▁claimed	8059
▁producer	8060
▁websites	8061
转载	8062
makers	8063
▁Hong	8064
ibilities	8065
▁Term	8066
const	8067
esy	8068
▁Bang	8069
▁underst	8070
ride	8071
▁confirm	8072
年度	8073
第四	8074
▁Ron	8075
▁defined	8076
▁convert	8077
▁Images	8078
▁($	8079
nesota	8080
▁Tw	8081
▁legend	8082
fs	8083
▁AI	8084
unicip	8085
NY	8086
▁rough	8087
letter	8088
▁faculty	8089
▁Disc	8090
hetic	8091
▁Santa	8092
▁Farm	8093
▁closely	8094
irty	8095
输入	8096
▁supposed	8097
mal	8098
ureau	8099
▁elected	8100
▁Travel	8101
vy	8102
awa	8103
▁Senior	8104
▁stake	8105
ruption	8106
▁reduced	8107
Sm	8108
类型	8109
是因为	8110
▁Phys	8111
愿意	8112
folio	8113
了一个	8114
▁mir	8115
▁speaking	8116
▁entered	8117
['	8118
ylvania	8119
▁Cru	8120
▁Asian	8121
创业	8122
获取	8123
”)	8124
长按	8125
▁discount	8126
Exception	8127
inent	8128
iginal	8129
消防	8130
▁treated	8131
▁recording	8132
应急	8133
就要	8134
icken	8135
izer	8136
▁networks	8137
▁happening	8138
ping	8139
▁streets	8140
▁mode	8141
土地	8142
▁truck	8143
▁reject	8144
▁reserved	8145
▁manner	8146
展示	8147
▁Thank	8148
部署	8149
▁Mu	8150
gent	8151
▁replace	8152
强化	8153
PP	8154
Gu	8155
arters	8156
办公室	8157
曾经	8158
近平	8159
Rel	8160
▁Avenue	8161
Dav	8162
▁nurs	8163
arrow	8164
▁Houston	8165
▁Bal	8166
aug	8167
▁Editor	8168
搭配	8169
ycl	8170
ATE	8171
▁soul	8172
▁stone	8173
▁Where	8174
▁param	8175
粉丝	8176
▁Football	8177
▁valuable	8178
▁expansion	8179
年来	8180
liance	8181
预约	8182
▁missed	8183
习近平	8184
▁banks	8185
▁Magazine	8186
▁remote	8187
▁taste	8188
▁adds	8189
就像	8190
Pol	8191
▁Need	8192
▁Click	8193
DT	8194
▁delay	8195
greg	8196
细胞	8197
▁outdoor	8198
Any	8199
▁Systems	8200
▁mal	8201
上午	8202
▁cheap	8203
UM	8204
▁meetings	8205
▁broadcast	8206
考研	8207
▁Ball	8208
▁authority	8209
▁tracks	8210
▁exclusive	8211
▁accepted	8212
worth	8213
它的	8214
onym	8215
▁taught	8216
意思	8217
▁Scotland	8218
EA	8219
▁swim	8220
▁practical	8221
▁doors	8222
基金	8223
冠状	8224
▁Henry	8225
vin	8226
重要的	8227
就不	8228
总结	8229
appy	8230
▁airport	8231
爱的	8232
▁yards	8233
ulf	8234
▁properly	8235
▁destroy	8236
novation	8237
▁anywhere	8238
▁factor	8239
即使	8240
商品	8241
校园	8242
▁furniture	8243
▁ourselves	8244
amber	8245
▁cabin	8246
▁Ray	8247
▁Books	8248
▁organis	8249
bb	8250
▁none	8251
名单	8252
ras	8253
更好	8254
▁guard	8255
▁Eth	8256
File	8257
▁odd	8258
▁regularly	8259
现实	8260
▁tight	8261
orne	8262
城区	8263
Today	8264
pty	8265
▁Est	8266
▁elections	8267
▁deaths	8268
▁vast	8269
othe	8270
▁Sym	8271
基地	8272
▁Mah	8273
流程	8274
▁Room	8275
▁finds	8276
▁phase	8277
ython	8278
乡村	8279
▁Bul	8280
▁Jenn	8281
▁wins	8282
▁Bu	8283
▁boys	8284
监管	8285
▁riv	8286
▁acting	8287
▁occasion	8288
清楚	8289
然而	8290
▁mo	8291
▁Ukraine	8292
Another	8293
miss	8294
TER	8295
▁Mir	8296
ership	8297
母亲	8298
▁egg	8299
▁joy	8300
▁AS	8301
▁paying	8302
Also	8303
▁Soft	8304
oir	8305
▁finance	8306
▁Dar	8307
▁entirely	8308
▁linked	8309
▁analy	8310
江苏	8311
▁Building	8312
维护	8313
Set	8314
改善	8315
▁orders	8316
▁evol	8317
出生	8318
▁Rom	8319
lay	8320
title	8321
post	8322
rav	8323
ults	8324
▁Run	8325
各类	8326
▁Tax	8327
▁Veg	8328
的生活	8329
▁offices	8330
▁Lew	8331
▁MA	8332
hat	8333
千万	8334
指挥	8335
▁objects	8336
utor	8337
▁Ha	8338
uis	8339
▁sac	8340
▁diversity	8341
内的	8342
▁Box	8343
▁Philipp	8344
▁broken	8345
▁Gallery	8346
▁joining	8347
▁Date	8348
▁Pack	8349
下方	8350
wa	8351
ogether	8352
▁sitting	8353
整理	8354
▁teach	8355
进行了	8356
pool	8357
因素	8358
occer	8359
▁Cas	8360
所在	8361
adelph	8362
DP	8363
▁fasc	8364
▁widely	8365
▁messages	8366
运输	8367
▁Before	8368
物质	8369
▁Anth	8370
▁forg	8371
▁decre	8372
▁losing	8373
Trans	8374
MT	8375
公路	8376
留言	8377
▁worst	8378
▁bon	8379
car	8380
▁NAS	8381
▁Rh	8382
▁possibly	8383
▁Davis	8384
轻松	8385
色的	8386
▁vo	8387
战略	8388
强调	8389
▁Cat	8390
sylvania	8391
▁Rose	8392
▁Turn	8393
olis	8394
▁Swed	8395
dis	8396
▁AT	8397
▁iron	8398
反应	8399
▁hits	8400
▁Summer	8401
▁Univers	8402
▁PR	8403
委会	8404
▁distinct	8405
竞争	8406
icide	8407
职工	8408
vely	8409
▁franch	8410
也就是	8411
▁desire	8412
▁Prince	8413
Although	8414
制造	8415
ydney	8416
away	8417
▁Sn	8418
查询	8419
Two	8420
ells	8421
▁scheme	8422
LS	8423
▁Key	8424
aints	8425
▁dinner	8426
以前	8427
数量	8428
出行	8429
▁drama	8430
▁veget	8431
最大的	8432
经理	8433
大部分	8434
duction	8435
idth	8436
▁examples	8437
adelphia	8438
平时	8439
不足	8440
Stud	8441
▁mut	8442
▁dates	8443
▁Wars	8444
▁medicine	8445
ensus	8446
报道	8447
▁mel	8448
▁therapy	8449
igrants	8450
yard	8451
此次	8452
养老	8453
▁sad	8454
ockey	8455
▁refuge	8456
▁integr	8457
Gr	8458
全市	8459
ECT	8460
▁quiet	8461
四川	8462
war	8463
▁aims	8464
冠状病毒	8465
的方式	8466
▁passing	8467
param	8468
fficient	8469
▁river	8470
▁settings	8471
下降	8472
▁ceremony	8473
▁Word	8474
景区	8475
▁appointed	8476
▁Miami	8477
心里	8478
▁vice	8479
arian	8480
▁Viet	8481
▁;	8482
扫码	8483
AA	8484
▁division	8485
afe	8486
awn	8487
▁younger	8488
▁Dead	8489
一线	8490
▁Mach	8491
▁Records	8492
▁windows	8493
▁solo	8494
▁crash	8495
▁interior	8496
▁painting	8497
垃圾	8498
共产	8499
互联网	8500
各项	8501
▁stopped	8502
▁accused	8503
']	8504
▁licens	8505
bsite	8506
放在	8507
▁monthly	8508
毕业生	8509
Copyright	8510
案件	8511
▁symptoms	8512
公安局	8513
heast	8514
▁Bon	8515
品质	8516
说的	8517
▁Resp	8518
▁Mult	8519
Object	8520
sl	8521
▁authors	8522
▁fundament	8523
Who	8524
enda	8525
▁plug	8526
▁rural	8527
语文	8528
我是	8529
也要	8530
▁Pict	8531
▁feedback	8532
▁Band	8533
▁diet	8534
院校	8535
▁plot	8536
最好的	8537
LO	8538
▁yesterday	8539
不同的	8540
atus	8541
▁Bern	8542
ulpt	8543
▁es	8544
Def	8545
▁enthus	8546
▁operate	8547
▁Affairs	8548
Thanks	8549
▁cutting	8550
▁Three	8551
ennes	8552
想到	8553
▁gro	8554
的新	8555
▁б	8556
▁Dun	8557
▁Elizabeth	8558
ulous	8559
▁prompt	8560
▁desk	8561
▁expressed	8562
▁worse	8563
▁purchased	8564
Jo	8565
▁newly	8566
eping	8567
现象	8568
style	8569
广州	8570
▁auto	8571
防疫	8572
xi	8573
▁king	8574
▁guidance	8575
Fl	8576
▁Sa	8577
▁Fred	8578
GA	8579
所谓	8580
▁anticip	8581
▁Nations	8582
owe	8583
▁authent	8584
▁Works	8585
▁Democrats	8586
pace	8587
▁Stephen	8588
allas	8589
▁Search	8590
▁telling	8591
自治	8592
▁east	8593
▁Columbia	8594
▁engage	8595
公园	8596
为主	8597
ez	8598
Where	8599
▁Pot	8600
独立	8601
▁dropped	8602
人口	8603
bal	8604
His	8605
▁Fun	8606
La	8607
open	8608
临床	8609
▁tested	8610
近期	8611
▁simpl	8612
▁«	8613
▁managing	8614
▁Kevin	8615
▁Palest	8616
▁Plus	8617
▁por	8618
pson	8619
abet	8620
ira	8621
▁remark	8622
家的	8623
▁degrees	8624
详细	8625
▁suc	8626
人类	8627
alo	8628
思维	8629
umin	8630
▁firms	8631
▁ticket	8632
▁ring	8633
▁Arizona	8634
child	8635
▁faces	8636
河北	8637
▁Brad	8638
▁achieved	8639
▁Friend	8640
▁protest	8641
▁liqu	8642
连续	8643
oz	8644
▁les	8645
HO	8646
▁Future	8647
NN	8648
研究生	8649
▁suggested	8650
▁nearby	8651
协会	8652
▁choices	8653
▁Emer	8654
学科	8655
就在	8656
▁collected	8657
tra	8658
elcome	8659
▁substant	8660
FF	8661
特点	8662
Mark	8663
ны	8664
shire	8665
▁prove	8666
美丽	8667
yr	8668
一旦	8669
MC	8670
▁Order	8671
Ne	8672
尽量	8673
yo	8674
▁SP	8675
▁Minnesota	8676
▁Brian	8677
可能会	8678
本人	8679
慢慢	8680
▁browser	8681
▁mixed	8682
▁Ox	8683
▁Eastern	8684
▁invited	8685
ilton	8686
anwhile	8687
各位	8688
ersion	8689
▁acquis	8690
▁Conf	8691
OK	8692
让我	8693
▁burn	8694
▁resc	8695
eld	8696
▁scr	8697
▁MS	8698
▁Cro	8699
▁assault	8700
odd	8701
▁Hu	8702
APP	8703
▁victim	8704
▁Ut	8705
人群	8706
heim	8707
acking	8708
引导	8709
不再	8710
▁depending	8711
▁proposal	8712
igger	8713
▁reliable	8714
▁Those	8715
▁voters	8716
▁Eric	8717
uting	8718
▁Latin	8719
inals	8720
▁improving	8721
stract	8722
动力	8723
athe	8724
呼吸	8725
▁Instead	8726
的朋友	8727
都要	8728
▁Students	8729
▁eating	8730
从而	8731
▁Saint	8732
rance	8733
ESS	8734
一名	8735
aka	8736
还会	8737
▁Yes	8738
othes	8739
▁Safety	8740
▁remained	8741
ci	8742
▁Forest	8743
▁Lin	8744
月份	8745
▁relief	8746
weight	8747
市委	8748
icted	8749
▁Line	8750
▁wearing	8751
▁approval	8752
▁Modern	8753
有多	8754
winning	8755
▁facilit	8756
oking	8757
ologist	8758
▁Rog	8759
repreneurs	8760
儿子	8761
sem	8762
igious	8763
运行	8764
▁Age	8765
▁split	8766
很难	8767
▁hasn	8768
pire	8769
▁é	8770
▁||	8771
mann	8772
▁FOR	8773
AND	8774
少年	8775
▁Prom	8776
基层	8777
▁Harry	8778
▁succeed	8779
▁assum	8780
▁birthday	8781
▁sudden	8782
▁Miller	8783
▁seasons	8784
rell	8785
大会	8786
▁HD	8787
obby	8788
终于	8789
____	8790
▁payments	8791
resident	8792
同样	8793
▁unable	8794
Eng	8795
▁golf	8796
uls	8797
achelor	8798
▁pleased	8799
gage	8800
GO	8801
ho	8802
Vis	8803
END	8804
▁injured	8805
▁AD	8806
▁tail	8807
▁trained	8808
▁Afghan	8809
ographs	8810
▁illegal	8811
让我们	8812
安装	8813
▁III	8814
几乎	8815
▁affil	8816
aska	8817
ificate	8818
ima	8819
osophy	8820
▁Comput	8821
▁profit	8822
创造	8823
▁visited	8824
▁Right	8825
▁matches	8826
izz	8827
bles	8828
升级	8829
aire	8830
当前	8831
▁hall	8832
ospitals	8833
▁conserv	8834
平均	8835
▁boat	8836
练习	8837
▁Jordan	8838
▁BBC	8839
迅速	8840
anth	8841
▁largely	8842
是不	8843
gov	8844
TR	8845
▁Adam	8846
▁scenes	8847
itled	8848
美好	8849
▁hosted	8850
▁trail	8851
▁Bad	8852
▁Wat	8853
▁Clin	8854
▁filter	8855
▁informed	8856
rip	8857
▁trav	8858
简介	8859
▁Culture	8860
person	8861
size	8862
▁lawyer	8863
每次	8864
优质	8865
▁Fall	8866
▁dogs	8867
etts	8868
▁heav	8869
earing	8870
anes	8871
▁turning	8872
▁suggests	8873
Even	8874
table	8875
▁Lic	8876
加上	8877
▁Link	8878
▁af	8879
▁subsequ	8880
▁Kat	8881
合格	8882
▁behalf	8883
razy	8884
尤其是	8885
▁fifth	8886
▁bodies	8887
▁Wales	8888
eck	8889
▁Stock	8890
cons	8891
▁alcohol	8892
ographer	8893
nie	8894
lik	8895
很好	8896
平方	8897
收到	8898
▁Bol	8899
▁Has	8900
伤害	8901
启动	8902
▁diss	8903
Net	8904
▁Wilson	8905
▁fixed	8906
▁keeps	8907
▁Another	8908
▁compens	8909
▁Pract	8910
▁giant	8911
una	8912
去了	8913
▁immediate	8914
ellect	8915
专项	8916
Ke	8917
待遇	8918
▁cleaning	8919
▁trends	8920
▁Las	8921
▁helpful	8922
常见	8923
▁Diego	8924
draw	8925
regon	8926
CP	8927
▁random	8928
有没有	8929
ova	8930
父亲	8931
▁depth	8932
▁dating	8933
roller	8934
怎么办	8935
orry	8936
▁creates	8937
▁weak	8938
▁moves	8939
▁Cert	8940
▁luxury	8941
audi	8942
▁answers	8943
overty	8944
anguages	8945
▁dining	8946
▁Advis	8947
▁grade	8948
▁Station	8949
回答	8950
boy	8951
iley	8952
ategory	8953
iscons	8954
房子	8955
oga	8956
▁sole	8957
EE	8958
供应	8959
▁Pen	8960
▁ju	8961
离开	8962
阳光	8963
▁ly	8964
▁invent	8965
▁premium	8966
▁Download	8967
▁motion	8968
房屋	8969
ocated	8970
cers	8971
isconsin	8972
▁Roll	8973
案例	8974
兴趣	8975
南京	8976
är	8977
People	8978
▁LLC	8979
Best	8980
adow	8981
核酸检测	8982
▁(@	8983
商务	8984
essed	8985
▁sample	8986
▁Non	8987
力的	8988
▁findings	8989
never	8990
▁weapons	8991
HL	8992
▁Resources	8993
▁faced	8994
▁rot	8995
zh	8996
▁rub	8997
结婚	8998
▁Golden	8999
▁interpret	9000
新型冠状病毒	9001
▁acts	9002
▁titles	9003
▁mine	9004
美的	9005
▁fruit	9006
▁inspect	9007
▁walls	9008
you	9009
▁cycle	9010
▁sessions	9011
gor	9012
此外	9013
▁lights	9014
▁illness	9015
多了	9016
▁Marketing	9017
aza	9018
▁Case	9019
olec	9020
▁wheel	9021
依然	9022
▁dynamic	9023
▁Ms	9024
▁rising	9025
▁regions	9026
opher	9027
▁ET	9028
哈哈	9029
▁comedy	9030
▁Cond	9031
好了	9032
▁ages	9033
▁Nic	9034
▁counsel	9035
▁struggle	9036
▁С	9037
ls	9038
▁acceler	9039
▁realize	9040
▁permanent	9041
ди	9042
教授	9043
▁writers	9044
Published	9045
▁crucial	9046
▁discussed	9047
elle	9048
▁engaged	9049
Log	9050
itionally	9051
▁recon	9052
achus	9053
▁opens	9054
另一	9055
David	9056
gener	9057
▁Vegas	9058
▁returning	9059
也能	9060
女儿	9061
▁Nigeria	9062
AV	9063
切实	9064
新区	9065
Direct	9066
▁Heart	9067
▁severe	9068
▁Place	9069
▁Buy	9070
ifies	9071
idays	9072
oval	9073
axy	9074
免疫	9075
▁embr	9076
':	9077
空气	9078
▁champion	9079
iable	9080
▁pra	9081
▁pharm	9082
▁Economic	9083
▁Change	9084
▁domain	9085
▁capable	9086
▁Supp	9087
统计	9088
';	9089
apped	9090
▁assistant	9091
▁alt	9092
▁Edition	9093
rix	9094
▁MD	9095
时刻	9096
▁mob	9097
));	9098
▁Map	9099
交警	9100
atics	9101
▁kil	9102
▁enem	9103
ipe	9104
ogy	9105
重新	9106
anged	9107
▁Square	9108
▁Transport	9109
RS	9110
▁bridge	9111
山西	9112
▁horse	9113
应当	9114
顺利	9115
Fil	9116
▁totally	9117
▁fraud	9118
▁Dream	9119
▁brill	9120
inator	9121
▁Sydney	9122
riving	9123
ortion	9124
▁deploy	9125
▁Does	9126
▁emissions	9127
日子	9128
eters	9129
▁pure	9130
消费者	9131
负责人	9132
▁cream	9133
比例	9134
▁Store	9135
全省	9136
▁accurate	9137
红色	9138
▁catal	9139
过的	9140
▁Ly	9141
▁Sir	9142
生活中	9143
动作	9144
▁likes	9145
风格	9146
▁Account	9147
Ret	9148
▁external	9149
▁habit	9150
inch	9151
▁displ	9152
▁picked	9153
▁trouble	9154
tle	9155
担心	9156
贯彻	9157
高度	9158
给予	9159
放弃	9160
重视	9161
ART	9162
▁contrast	9163
achusetts	9164
▁organized	9165
▁Josh	9166
▁je	9167
sex	9168
▁imagine	9169
之间的	9170
▁SU	9171
▁Gi	9172
AY	9173
▁Os	9174
▁Bell	9175
intend	9176
▁Assembly	9177
▁Memorial	9178
天的	9179
如有侵权	9180
▁tab	9181
ashed	9182
▁strike	9183
↓↓	9184
▁intent	9185
▁surf	9186
ishop	9187
▁Ont	9188
思考	9189
Bar	9190
事项	9191
▁Kansas	9192
Once	9193
英雄	9194
▁adventure	9195
某某	9196
quot	9197
▁Gro	9198
女孩	9199
season	9200
▁Industry	9201
补贴	9202
▁weekly	9203
危险	9204
指出	9205
Ste	9206
▁vary	9207
▁solve	9208
ika	9209
成果	9210
不如	9211
排名	9212
▁versions	9213
▁Trade	9214
▁Common	9215
Att	9216
▁Bru	9217
绝对	9218
▁Netflix	9219
Star	9220
ME	9221
▁Imm	9222
本身	9223
态度	9224
▁Site	9225
高级	9226
原创	9227
IO	9228
们的	9229
▁yes	9230
▁component	9231
▁mountain	9232
制定	9233
making	9234
▁assign	9235
▁portfolio	9236
▁Credit	9237
▁fabric	9238
▁southern	9239
▁priority	9240
Back	9241
▁Chall	9242
▁usual	9243
▁doctors	9244
▁prime	9245
▁supplies	9246
期待	9247
至少	9248
哪里	9249
加快	9250
Mich	9251
▁ordered	9252
▁mainly	9253
brid	9254
▁Olympic	9255
pton	9256
cha	9257
ilst	9258
Work	9259
还在	9260
▁Turkey	9261
▁Hold	9262
▁OR	9263
并不是	9264
ytics	9265
从事	9266
▁agents	9267
▁admin	9268
▁(+	9269
▁generate	9270
▁Attorney	9271
承担	9272
您的	9273
ista	9274
alty	9275
enth	9276
充满	9277
iser	9278
▁suffered	9279
▁designer	9280
▁involving	9281
错误	9282
aga	9283
▁thread	9284
▁facts	9285
农民	9286
▁Ref	9287
ensity	9288
能源	9289
▁silver	9290
▁Cub	9291
fall	9292
读书	9293
▁Sat	9294
Check	9295
收费	9296
改造	9297
▁humans	9298
研发	9299
技巧	9300
▁capture	9301
Rem	9302
▁guarantee	9303
connect	9304
▁Nav	9305
core	9306
▁Bra	9307
▁Foreign	9308
能量	9309
▁Hope	9310
事实	9311
这款	9312
▁stations	9313
▁primarily	9314
▁presents	9315
湖南	9316
ilty	9317
▁NOT	9318
group	9319
icing	9320
党的	9321
推广	9322
大概	9323
Under	9324
▁union	9325
▁exception	9326
开心	9327
Mon	9328
段时间	9329
sea	9330
spec	9331
erial	9332
owing	9333
base	9334
orable	9335
投稿	9336
▁jun	9337
追求	9338
▁Small	9339
ante	9340
第十	9341
▁Iowa	9342
Char	9343
有一个	9344
▁Cancer	9345
▁perfectly	9346
逐渐	9347
相当	9348
预计	9349
▁Marc	9350
▁Whether	9351
riers	9352
pg	9353
▁increases	9354
plete	9355
▁Governor	9356
▁farmers	9357
▁isol	9358
▁Put	9359
bourne	9360
anny	9361
Ear	9362
▁Victoria	9363
aret	9364
▁Event	9365
▁Student	9366
▁extension	9367
Christ	9368
▁zone	9369
▁clar	9370
▁PS	9371
▁actors	9372
ALL	9373
▁Tony	9374
的发展	9375
▁Ever	9376
oln	9377
▁occurred	9378
annels	9379
uce	9380
▁shipping	9381
▁Dam	9382
▁duty	9383
▁’	9384
Cal	9385
▁recognize	9386
▁Opt	9387
▁NS	9388
资讯	9389
▁kinds	9390
roit	9391
she	9392
ORE	9393
BM	9394
Sim	9395
▁hoping	9396
英国	9397
▁Current	9398
▁tea	9399
绿色	9400
▁covering	9401
广场	9402
expected	9403
▁Tok	9404
▁obtained	9405
▁LA	9406
▁ending	9407
CR	9408
▁crypt	9409
青春	9410
▁eligible	9411
aping	9412
▁cinem	9413
▁dies	9414
▁knowing	9415
都可以	9416
▁Bh	9417
贷款	9418
好好	9419
Date	9420
▁undert	9421
队伍	9422
▁seats	9423
▁typical	9424
▁wal	9425
不想	9426
原作者	9427
▁Major	9428
▁Base	9429
ingham	9430
衣服	9431
笔试	9432
是个	9433
▁elev	9434
acher	9435
▁awesome	9436
每年	9437
author	9438
▁Clinton	9439
▁framework	9440
先进	9441
▁centers	9442
ви	9443
▁Name	9444
OV	9445
Yes	9446
▁Finance	9447
举行	9448
Oct	9449
▁resulting	9450
▁soph	9451
婚姻	9452
▁cup	9453
▁lift	9454
▁Sep	9455
▁marks	9456
▁Ven	9457
▁taxes	9458
▁favourite	9459
▁mechanism	9460
▁Albert	9461
处罚	9462
iy	9463
▁Bat	9464
▁lect	9465
▁describe	9466
▁sought	9467
▁Sport	9468
去年	9469
▁bike	9470
▁suitable	9471
▁Garden	9472
▁Ak	9473
world	9474
▁Anton	9475
香港	9476
▁stunning	9477
▁lunch	9478
▁avail	9479
吸引	9480
iral	9481
▁submitted	9482
出版	9483
ouch	9484
声音	9485
▁seriously	9486
初中	9487
小组	9488
一份	9489
▁shots	9490
▁Movie	9491
有着	9492
▁Sav	9493
bell	9494
老年	9495
自行	9496
▁pray	9497
▁analyst	9498
▁Covid	9499
Look	9500
++	9501
▁root	9502
ige	9503
▁Youth	9504
▁Hay	9505
▁ur	9506
理想	9507
QL	9508
▁Ide	9509
ete	9510
眼睛	9511
治理	9512
Count	9513
▁rid	9514
Fi	9515
▁Drive	9516
▁/**	9517
vision	9518
▁listening	9519
Service	9520
限制	9521
ardens	9522
cr	9523
map	9524
血管	9525
▁pitch	9526
第一时间	9527
身上	9528
ocolate	9529
eman	9530
植物	9531
GE	9532
inity	9533
带着	9534
▁subsid	9535
ão	9536
的不	9537
Thank	9538
▁Price	9539
也没有	9540
▁newspaper	9541
akh	9542
▁Barb	9543
▁referred	9544
▁Training	9545
lected	9546
重庆	9547
▁sees	9548
▁interface	9549
▁Mountain	9550
rog	9551
▁Berlin	9552
▁Ba	9553
▁meat	9554
▁encounter	9555
break	9556
▁NBA	9557
▁Pu	9558
▁Quest	9559
inar	9560
Web	9561
▁Month	9562
地产	9563
▁Low	9564
▁actress	9565
▁initially	9566
ito	9567
cn	9568
asp	9569
▁Navy	9570
vas	9571
▁Dog	9572
▁letters	9573
▁rh	9574
▁Limited	9575
▁Member	9576
▁Du	9577
▁repeated	9578
▁Kelly	9579
▁rating	9580
andy	9581
实行	9582
urric	9583
娱乐	9584
▁reward	9585
▁Jay	9586
▁Oak	9587
▁charity	9588
▁cann	9589
▁replaced	9590
count	9591
▁Ve	9592
enders	9593
他人	9594
▁formal	9595
▁flowers	9596
▁heads	9597
▁~	9598
HA	9599
▁Prize	9600
▁experim	9601
iplom	9602
amsung	9603
春节	9604
teen	9605
▁lighting	9606
Then	9607
▁tall	9608
▁Living	9609
▁Premier	9610
HP	9611
▁Dallas	9612
▁Wisconsin	9613
omy	9614
▁granted	9615
▁exposure	9616
World	9617
being	9618
▁Cooper	9619
Fe	9620
给我	9621
▁Death	9622
生肖	9623
oding	9624
▁suffering	9625
颜色	9626
▁forth	9627
▁producing	9628
双方	9629
事业单位	9630
▁Things	9631
▁Austin	9632
isodes	9633
▁Sound	9634
Down	9635
良好的	9636
▁fulf	9637
ni	9638
aining	9639
▁Es	9640
TO	9641
▁qualified	9642
身份证	9643
▁Stone	9644
ennessee	9645
agen	9646
onder	9647
oen	9648
▁diseases	9649
给大家	9650
全力	9651
▁Lewis	9652
处于	9653
▁Rail	9654
▁Psych	9655
ма	9656
温度	9657
▁indeed	9658
二十	9659
鼓励	9660
sum	9661
▁Oregon	9662
▁essay	9663
:(	9664
▁Patrick	9665
Press	9666
▁Brother	9667
irk	9668
▁proven	9669
天津	9670
ql	9671
▁Sarah	9672
下去	9673
▁chapter	9674
otten	9675
贡献	9676
▁Ros	9677
博士	9678
bel	9679
ints	9680
▁apartment	9681
特别是	9682
aph	9683
记忆	9684
▁Members	9685
示范	9686
▁franchise	9687
安徽	9688
item	9689
始终	9690
背景	9691
aning	9692
之外	9693
Hist	9694
▁machines	9695
igenous	9696
trans	9697
▁rein	9698
▁phen	9699
铁路	9700
举办	9701
Watch	9702
▁Ra	9703
▁Silver	9704
一条	9705
▁Independ	9706
▁Greg	9707
▁studied	9708
▁Inf	9709
▁boot	9710
▁Dub	9711
Bec	9712
周边	9713
▁loves	9714
ificial	9715
在这里	9716
生的	9717
还可以	9718
大多数	9719
▁generated	9720
,’	9721
▁sick	9722
Writ	9723
▁dealing	9724
▁frust	9725
mat	9726
RL	9727
蛋白	9728
▁bear	9729
▁€	9730
▁Lind	9731
▁Express	9732
▁zero	9733
出来的	9734
半年	9735
公示	9736
ée	9737
}{	9738
Author	9739
▁flag	9740
▁broke	9741
▁rose	9742
iere	9743
▁Defense	9744
ión	9745
▁Jean	9746
主持	9747
▁Grant	9748
▁Model	9749
▁sky	9750
whel	9751
▁Bowl	9752
▁driven	9753
不知	9754
▁procedure	9755
etch	9756
▁hat	9757
理念	9758
▁constant	9759
▁exceed	9760
▁voc	9761
▁promise	9762
section	9763
会员	9764
投入	9765
▁Lady	9766
具备	9767
手术	9768
▁insight	9769
▁lessons	9770
enz	9771
ushing	9772
Apr	9773
▁Contin	9774
chers	9775
Event	9776
▁focuses	9777
▁Schools	9778
▁streaming	9779
资产	9780
▁Architect	9781
▁Still	9782
▁Ali	9783
优化	9784
▁uncertain	9785
ür	9786
▁arms	9787
居住	9788
▁Bry	9789
▁batt	9790
人物	9791
同志	9792
▁aggress	9793
▁mouth	9794
▁Les	9795
▁downtown	9796
▁SC	9797
▁northern	9798
▁thick	9799
▁spr	9800
endment	9801
igate	9802
▁bench	9803
▁Sche	9804
▁chat	9805
▁persons	9806
在家	9807
相应	9808
第一次	9809
即将	9810
▁Atlanta	9811
onic	9812
▁upper	9813
▁fest	9814
云南	9815
岁的	9816
并没有	9817
▁Chairman	9818
▁gaming	9819
ERE	9820
▁Bush	9821
▁discrim	9822
vard	9823
▁sight	9824
game	9825
rition	9826
ami	9827
▁killing	9828
在这	9829
干净	9830
▁Marg	9831
▁negoti	9832
▁Dark	9833
女士	9834
▁requests	9835
ori	9836
▁sugar	9837
claim	9838
▁saving	9839
▁Syria	9840
▁combat	9841
▁hosting	9842
▁Chem	9843
▁hidden	9844
▁racing	9845
▁Pers	9846
▁lifestyle	9847
攻坚	9848
也很	9849
▁childhood	9850
▁bathroom	9851
▁Events	9852
▁Imp	9853
党史	9854
entures	9855
▁legacy	9856
▁writes	9857
▁gained	9858
▁patterns	9859
▁clubs	9860
▁Was	9861
▁pilot	9862
▁frag	9863
ellectual	9864
平安	9865
spe	9866
▁Annual	9867
▁concrete	9868
='	9869
lib	9870
▁proof	9871
ogen	9872
▁everyday	9873
iac	9874
▁你	9875
math	9876
oured	9877
▁terr	9878
aze	9879
▁skill	9880
abama	9881
je	9882
▁Cry	9883
unter	9884
多个	9885
上市	9886
▁Arm	9887
▁Ross	9888
▁Matthew	9889
解释	9890
▁Ast	9891
▁emerging	9892
▁jew	9893
uana	9894
▁heritage	9895
实力	9896
我就	9897
▁Authority	9898
▁/>	9899
ounded	9900
▁ensuring	9901
Cor	9902
PL	9903
▁lie	9904
优先	9905
▁excess	9906
温暖	9907
▁tast	9908
▁Seattle	9909
应对	9910
发展的	9911
▁unknown	9912
▁sculpt	9913
dy	9914
唯一	9915
umni	9916
▁Ult	9917
▁Should	9918
▁Pit	9919
课堂	9920
那种	9921
▁bes	9922
eras	9923
nce	9924
▁Smart	9925
▁aspect	9926
多次	9927
出去	9928
评论	9929
▁iconic	9930
▁marked	9931
▁mini	9932
Off	9933
一位	9934
▁warrant	9935
esh	9936
▁laugh	9937
PE	9938
▁rear	9939
▁ok	9940
▁drawing	9941
҈҉҉҉҈҉҉҉	9942
▁Learn	9943
▁portion	9944
饮食	9945
▁breaking	9946
҈҉҉҉҈҉҉҉҈	9947
Her	9948
▁argument	9949
▁Bridge	9950
inking	9951
电脑	9952
营销	9953
▁papers	9954
▁Yet	9955
enter	9956
利益	9957
▁hyp	9958
▁memories	9959
▁Did	9960
▁Using	9961
lient	9962
▁equity	9963
▁grad	9964
成都	9965
Contact	9966
ouri	9967
▁tag	9968
ools	9969
Cons	9970
相比	9971
mates	9972
▁Bed	9973
km	9974
▁acquired	9975
整治	9976
▁Image	9977
tery	9978
ско	9979
incoln	9980
脱贫	9981
男子	9982
▁wave	9983
开启	9984
Find	9985
▁Islamic	9986
确认	9987
和国	9988
mo	9989
▁EV	9990
▁compete	9991
▁Learning	9992
▁chart	9993
▁Regional	9994
that	9995
▁Jam	9996
home	9997
GBT	9998
Br	9999
▁Sales	10000
▁fiction	10001
▁大	10002
ста	10003
▁Relations	10004
ando	10005
件事	10006
▁DVD	10007
aya	10008
▁warning	10009
Well	10010
ateful	10011
也许	10012
▁expanded	10013
▁alive	10014
ailed	10015
▁Greek	10016
美元	10017
ickets	10018
▁hardware	10019
▁prize	10020
urse	10021
▁Feder	10022
▁reducing	10023
SO	10024
NG	10025
▁Ah	10026
odge	10027
▁overse	10028
Pat	10029
▁Moh	10030
▁chose	10031
EV	10032
▁lies	10033
▁react	10034
▁surprised	10035
Med	10036
公交	10037
▁Winter	10038
状况	10039
▁Maryland	10040
▁podcast	10041
▁subscrib	10042
site	10043
执法	10044
▁origin	10045
▁plate	10046
观点	10047
▁pace	10048
oken	10049
▁Studio	10050
▁Ontario	10051
▁а	10052
▁Sem	10053
▁winners	10054
▁religion	10055
▁OS	10056
▁lovely	10057
▁beer	10058
▁render	10059
rible	10060
▁unus	10061
DC	10062
▁Years	10063
截至	10064
▁funny	10065
▁iP	10066
收藏	10067
eway	10068
▁Publ	10069
密切	10070
装修	10071
▁PA	10072
Path	10073
▁Jason	10074
▁Sant	10075
看着	10076
py	10077
节目	10078
▁votes	10079
▁voted	10080
vo	10081
▁rum	10082
▁Israeli	10083
附近	10084
▁Saudi	10085
rait	10086
iform	10087
取消	10088
▁Atlantic	10089
▁empty	10090
往期	10091
▁Ho	10092
▁causing	10093
▁gallery	10094
邮箱	10095
mic	10096
药物	10097
▁tweet	10098
▁consists	10099
▁File	10100
▁го	10101
▁voting	10102
urities	10103
▁Jer	10104
更多的	10105
▁alter	10106
▁bid	10107
▁baseball	10108
itarian	10109
Oh	10110
体检	10111
▁deeply	10112
律师	10113
▁brown	10114
writer	10115
防止	10116
▁spark	10117
▁vend	10118
wing	10119
▁Section	10120
▁Beaut	10121
▁Anderson	10122
革命	10123
▁carefully	10124
▁copyright	10125
怎样	10126
▁spokes	10127
▁personnel	10128
utter	10129
▁Heritage	10130
▁strict	10131
▁Stadium	10132
argo	10133
Prof	10134
info	10135
▁Rs	10136
oven	10137
pa	10138
▁extreme	10139
lation	10140
olly	10141
▁forecast	10142
▁});	10143
▁adopted	10144
化的	10145
coin	10146
▁Study	10147
uters	10148
▁Az	10149
角度	10150
▁remind	10151
▁closing	10152
▁pump	10153
▁Anthony	10154
有所	10155
▁Help	10156
▁tasks	10157
▁reduction	10158
分数	10159
ecess	10160
环节	10161
gi	10162
acked	10163
▁Liter	10164
▁Worth	10165
▁Corn	10166
复工	10167
eps	10168
▁enroll	10169
Despite	10170
渠道	10171
made	10172
老板	10173
▁Further	10174
▁pit	10175
anz	10176
▁flights	10177
fire	10178
▁Mobile	10179
▁hire	10180
▁attrib	10181
▁Personal	10182
者的	10183
▁empower	10184
ellite	10185
tes	10186
分为	10187
abb	10188
▁styles	10189
物业	10190
▁bedroom	10191
cor	10192
Min	10193
▁ocean	10194
▁fishing	10195
uties	10196
▁Insurance	10197
而言	10198
▁drawn	10199
orship	10200
Lear	10201
很大	10202
规则	10203
▁bomb	10204
完整	10205
▁courts	10206
Dec	10207
▁Despite	10208
不住	10209
▁grass	10210
工艺	10211
这就是	10212
Aug	10213
做的	10214
▁admitted	10215
▁Muslim	10216
▁assert	10217
▁yield	10218
化学	10219
▁incorpor	10220
形象	10221
▁meets	10222
quarters	10223
▁grab	10224
left	10225
▁pic	10226
stal	10227
▁declared	10228
▁Grow	10229
TE	10230
Tra	10231
▁hospitals	10232
▁stretch	10233
突破	10234
umps	10235
▁Cloud	10236
chestra	10237
graduate	10238
sters	10239
名字	10240
▁sending	10241
▁raising	10242
kt	10243
一体	10244
▁java	10245
width	10246
上下	10247
▁hung	10248
vol	10249
爸爸	10250
▁cos	10251
Error	10252
ör	10253
rett	10254
或许	10255
▁cuts	10256
突出	10257
input	10258
路上	10259
leges	10260
▁Mit	10261
rat	10262
▁AC	10263
Dep	10264
length	10265
ixture	10266
▁tables	10267
check	10268
▁outcomes	10269
▁upload	10270
▁saved	10271
▁aimed	10272
host	10273
学员	10274
▁rig	10275
▁salt	10276
▁gap	10277
ordinary	10278
▁Li	10279
▁extends	10280
集体	10281
lan	10282
ben	10283
▁channels	10284
Before	10285
▁Final	10286
ulum	10287
▁roads	10288
▁mining	10289
▁yellow	10290
hu	10291
链接	10292
iour	10293
▁Represent	10294
▁cable	10295
实在	10296
▁releases	10297
复杂	10298
iche	10299
▁venue	10300
MM	10301
osystem	10302
紧急	10303
▁athletes	10304
holder	10305
▁Legal	10306
▁Tennessee	10307
▁Oxford	10308
▁PhD	10309
变成	10310
长的	10311
▁Ocean	10312
issioner	10313
▁poverty	10314
▁reader	10315
Spe	10316
▁Alliance	10317
多年	10318
▁Toy	10319
原来	10320
▁meal	10321
▁Though	10322
▁Mayor	10323
▁Norm	10324
摄影	10325
▁myst	10326
▁colon	10327
▁Medic	10328
▁premier	10329
刺激	10330
▁Chap	10331
atar	10332
▁nations	10333
UK	10334
补充	10335
elson	10336
▁organic	10337
"></	10338
▁Rome	10339
西安	10340
效率	10341
eland	10342
▁realized	10343
▁extend	10344
判断	10345
▁Treat	10346
rison	10347
▁puts	10348
adesh	10349
Ent	10350
▁Ess	10351
它们	10352
▁Nation	10353
҈҉҉҈	10354
▁languages	10355
▁loans	10356
lessly	10357
停车	10358
所有的	10359
▁Lyn	10360
BL	10361
▁guilty	10362
unicipal	10363
▁pulled	10364
ikes	10365
orse	10366
ми	10367
itu	10368
National	10369
版权归	10370
ijuana	10371
NC	10372
备考	10373
▁surve	10374
▁narrow	10375
▁///	10376
▁boss	10377
▁corn	10378
bass	10379
▁amid	10380
());	10381
▁export	10382
▁tiny	10383
▁acknowled	10384
▁Korean	10385
自治区	10386
otte	10387
▁synt	10388
ivalent	10389
Call	10390
▁spin	10391
agan	10392
▁talented	10393
scale	10394
ategories	10395
month	10396
▁(“	10397
van	10398
ве	10399
▁inches	10400
人民政府	10401
发放	10402
机场	10403
▁console	10404
一家	10405
福建	10406
申报	10407
missions	10408
▁thorough	10409
强的	10410
时的	10411
▁Short	10412
▁Hawai	10413
kg	10414
Spec	10415
她们	10416
多种	10417
▁vess	10418
▁factory	10419
organ	10420
abis	10421
EF	10422
iot	10423
aly	10424
最低	10425
▁Article	10426
来源于	10427
学位	10428
lers	10429
上涨	10430
▁WW	10431
ouver	10432
通道	10433
unc	10434
▁Dave	10435
></	10436
Hel	10437
▁NEW	10438
内部	10439
Request	10440
精准	10441
▁powers	10442
▁Palestin	10443
▁bands	10444
▁soldiers	10445
pay	10446
▁plane	10447
▁Vietnam	10448
names	10449
▁overwhel	10450
▁PDF	10451
也就	10452
Start	10453
▁principal	10454
的一个	10455
pha	10456
▁Marsh	10457
▁Release	10458
▁savings	10459
▁protein	10460
▁Osc	10461
蒙古	10462
dt	10463
考核	10464
onna	10465
▁Gun	10466
每个人	10467
派出	10468
▁Motor	10469
▁managers	10470
一定的	10471
种植	10472
▁stages	10473
内心	10474
▁reveal	10475
HT	10476
ech	10477
reation	10478
▁Eag	10479
nav	10480
hop	10481
移动	10482
▁Build	10483
berry	10484
▁sheet	10485
复习	10486
▁dreams	10487
▁graduated	10488
▁CON	10489
▁handling	10490
▁Indiana	10491
▁hurt	10492
▁theatre	10493
▁Beh	10494
▁cm	10495
config	10496
Black	10497
谢谢	10498
▁lawsuit	10499
▁foods	10500
db	10501
硕士	10502
▁Peace	10503
▁Table	10504
Item	10505
image	10506
▁wra	10507
▁army	10508
来到	10509
▁charm	10510
▁arrive	10511
▁stim	10512
quality	10513
olds	10514
version	10515
▁hate	10516
▁CL	10517
▁fairly	10518
▁milk	10519
▁tomorrow	10520
主席	10521
▁Clark	10522
加工	10523
▁glad	10524
rogen	10525
FO	10526
我觉得	10527
Note	10528
},	10529
▁ruling	10530
UI	10531
▁如何	10532
微博	10533
▁Celebr	10534
▁Natural	10535
Each	10536
aturally	10537
覆盖	10538
▁Forum	10539
▁western	10540
中共	10541
▁Moon	10542
▁Allen	10543
ds	10544
▁exposed	10545
▁Tro	10546
▁Village	10547
人在	10548
▁reaction	10549
itol	10550
▁attempts	10551
上面	10552
gorith	10553
IST	10554
▁soil	10555
▁twenty	10556
感到	10557
flow	10558
高质量	10559
▁province	10560
struct	10561
▁magic	10562
▁Return	10563
▁cycl	10564
公务	10565
加油	10566
监测	10567
村民	10568
十年	10569
ceived	10570
roke	10571
▁Simon	10572
▁Detroit	10573
戴口罩	10574
几年	10575
looking	10576
不起	10577
▁bass	10578
ousing	10579
▁studying	10580
▁logo	10581
▁forever	10582
▁sentence	10583
加大	10584
▁carrying	10585
etary	10586
▁tur	10587
▁roy	10588
▁Share	10589
▁oppos	10590
unes	10591
▁Bureau	10592
发热	10593
wind	10594
▁cooking	10595
▁shops	10596
不够	10597
erving	10598
▁spiritual	10599
raction	10600
▁Malays	10601
▁Advent	10602
▁limits	10603
▁engaging	10604
很有	10605
文学	10606
▁waters	10607
想法	10608
广播	10609
机械	10610
reated	10611
▁第	10612
ashes	10613
▁focusing	10614
icking	10615
▁searching	10616
▁Bit	10617
下了	10618
▁retired	10619
▁noticed	10620
▁tank	10621
▁Delhi	10622
▁Indones	10623
▁Never	10624
▁threats	10625
▁controls	10626
eta	10627
▁ко	10628
▁musicians	10629
▁bread	10630
▁Rub	10631
▁Ten	10632
bean	10633
▁ads	10634
▁→	10635
▁targeted	10636
▁dismiss	10637
▁thousand	10638
▁demands	10639
熟悉	10640
▁Laure	10641
▁Leon	10642
Open	10643
舒适	10644
Context	10645
▁targets	10646
start	10647
令人	10648
▁Der	10649
eling	10650
组成	10651
▁Shop	10652
andal	10653
▁Front	10654
ventional	10655
▁Alabama	10656
▁visits	10657
广西	10658
anning	10659
▁SS	10660
▁extent	10661
▁talked	10662
坚决	10663
▁ease	10664
▁evolution	10665
▁chairman	10666
▁scores	10667
▁Roy	10668
警方	10669
▁reaching	10670
▁fo	10671
理由	10672
▁Software	10673
high	10674
klah	10675
▁ranked	10676
▁Kids	10677
athered	10678
▁outcome	10679
▁В	10680
egin	10681
▁singing	10682
▁abandon	10683
▁},	10684
味道	10685
▁sectors	10686
神经	10687
dep	10688
地铁	10689
▁Consult	10690
Feb	10691
▁rapidly	10692
住房	10693
▁Scient	10694
▁lawyers	10695
KE	10696
共产党	10697
美食	10698
▁escape	10699
▁Islands	10700
奋斗	10701
▁insights	10702
性格	10703
rets	10704
▁Reviews	10705
▁visible	10706
▁delicious	10707
iffs	10708
wich	10709
▁Raj	10710
▁jack	10711
▁stead	10712
▁fitness	10713
repreneur	10714
▁Hart	10715
lie	10716
▁governor	10717
usher	10718
新冠病毒	10719
eties	10720
▁Own	10721
▁technique	10722
▁episodes	10723
UD	10724
wen	10725
▁signing	10726
▁ele	10727
▁vibr	10728
的同时	10729
ifier	10730
全体	10731
分类	10732
▁soci	10733
iking	10734
▁struck	10735
▁Barn	10736
Step	10737
▁suspect	10738
>>	10739
▁flying	10740
▁Edward	10741
▁abroad	10742
phones	10743
配图	10744
▁veteran	10745
▁Alexander	10746
▁reveals	10747
angers	10748
▁narrative	10749
ounce	10750
▁tor	10751
Red	10752
流量	10753
Intern	10754
▁bowl	10755
friendly	10756
拒绝	10757
▁Past	10758
▁speaker	10759
ector	10760
iverpool	10761
协调	10762
zes	10763
intage	10764
▁Exchange	10765
▁latter	10766
▁ultimate	10767
▁за	10768
ци	10769
早上	10770
quis	10771
▁Jane	10772
▁stronger	10773
▁moder	10774
▁Vin	10775
President	10776
▁branch	10777
Like	10778
bled	10779
▁entering	10780
olid	10781
调研	10782
▁shower	10783
amps	10784
▁fewer	10785
▁Bow	10786
true	10787
▁П	10788
▁recipe	10789
▁drinking	10790
▁wet	10791
共和国	10792
力度	10793
▁Balt	10794
▁Channel	10795
oup	10796
▁strongly	10797
▁birds	10798
▁Stories	10799
Donald	10800
▁discovery	10801
会计	10802
污染	10803
讨论	10804
▁Mission	10805
通常	10806
梦想	10807
▁raw	10808
oming	10809
陕西	10810
▁obviously	10811
idency	10812
上班	10813
休息	10814
ру	10815
PO	10816
acon	10817
ted	10818
▁breakfast	10819
就有	10820
▁weren	10821
REE	10822
▁aged	10823
iah	10824
▁Round	10825
▁Comments	10826
就算	10827
▁trib	10828
▁hel	10829
erning	10830
▁Note	10831
反映	10832
▁scope	10833
▁flav	10834
▁Dise	10835
▁Portug	10836
图文	10837
▁flexible	10838
▁promoting	10839
yes	10840
including	10841
▁三	10842
▁К	10843
▁shouldn	10844
Michael	10845
▁trick	10846
▁eleg	10847
▁Moore	10848
▁certified	10849
称为	10850
▁decline	10851
▁volunteer	10852
也没	10853
irtual	10854
▁Six	10855
High	10856
太多	10857
营业	10858
ded	10859
ancouver	10860
▁Lincoln	10861
▁enables	10862
▁overs	10863
▁genu	10864
▁Maybe	10865
▁venture	10866
▁acid	10867
dale	10868
iously	10869
▁gay	10870
▁seed	10871
做法	10872
▁Nether	10873
▁somewhat	10874
apolis	10875
days	10876
▁Mater	10877
xit	10878
▁Nev	10879
▁trailer	10880
▁falling	10881
阳市	10882
▁globe	10883
▁pursue	10884
Map	10885
▁ble	10886
▁clothing	10887
讲话	10888
iscal	10889
▁width	10890
新时代	10891
不在	10892
的东西	10893
▁template	10894
演员	10895
▁bills	10896
▁Lam	10897
rivate	10898
▁Bible	10899
ubs	10900
ikip	10901
klahoma	10902
▁lists	10903
▁bars	10904
▁Whit	10905
▁employers	10906
▁pointed	10907
rations	10908
▁Hop	10909
诈骗	10910
▁BM	10911
出口	10912
▁audiences	10913
▁temporary	10914
▁climb	10915
收获	10916
退休	10917
$$	10918
素质	10919
▁Drug	10920
▁manual	10921
thur	10922
▁involves	10923
▁layer	10924
▁Holy	10925
▁brilliant	10926
好看	10927
uz	10928
otive	10929
eron	10930
▁prohib	10931
▁bare	10932
科研	10933
运势	10934
ront	10935
ader	10936
▁flash	10937
合适	10938
我市	10939
每一个	10940
▁lin	10941
agg	10942
ighth	10943
▁stood	10944
▁resulted	10945
联系电话	10946
聚集	10947
▁Oil	10948
▁watched	10949
Ac	10950
▁liquid	10951
())	10952
有序	10953
通报	10954
sect	10955
▁phenomen	10956
▁ru	10957
angle	10958
▁folks	10959
▁subjects	10960
▁CR	10961
End	10962
▁FA	10963
ifting	10964
新疆	10965
xic	10966
erald	10967
▁Mrs	10968
▁Integ	10969
elta	10970
▁crimes	10971
小的	10972
协议	10973
物资	10974
▁equipped	10975
趋势	10976
一生	10977
apos	10978
▁preparing	10979
▁Collect	10980
▁shoes	10981
▁extract	10982
hour	10983
▁Assistant	10984
Current	10985
▁cul	10986
dem	10987
我想	10988
图书	10989
▁rental	10990
▁neuro	10991
BN	10992
▁Morgan	10993
▁variable	10994
太阳	10995
▁liked	10996
▁Published	10997
▁有	10998
▁Copyright	10999
▁Print	11000
ronics	11001
苹果	11002
包含	11003
▁jur	11004
upp	11005
体现	11006
▁viewed	11007
前往	11008
▁till	11009
▁Process	11010
▁explos	11011
可以说	11012
▁LGBT	11013
▁normally	11014
aura	11015
▁Hills	11016
obody	11017
▁poly	11018
twitter	11019
owned	11020
xx	11021
▁()	11022
liers	11023
至于	11024
▁recycl	11025
ROM	11026
三年	11027
▁Gree	11028
行的	11029
Gen	11030
▁blocks	11031
日至	11032
river	11033
禁止	11034
江西	11035
aired	11036
检验	11037
usal	11038
▁luck	11039
,'	11040
ML	11041
▁exploring	11042
▁basically	11043
机动车	11044
▁Auto	11045
总书记	11046
▁laid	11047
▁entitled	11048
成熟	11049
xiety	11050
▁Climate	11051
的作用	11052
做了	11053
words	11054
▁bat	11055
onda	11056
懂得	11057
▁chances	11058
▁attached	11059
▁pow	11060
▁signal	11061
▁phones	11062
ili	11063
▁Creek	11064
incess	11065
说话	11066
▁Type	11067
▁Number	11068
▁aside	11069
▁asset	11070
微信公众号	11071
▁scoring	11072
▁describes	11073
财政	11074
▁accord	11075
UC	11076
健身	11077
week	11078
▁contracts	11079
准确	11080
细节	11081
▁Prim	11082
ned	11083
FT	11084
;(	11085
的情况下	11086
百年	11087
▁Gall	11088
一场	11089
挑战	11090
评估	11091
配套	11092
▁DNA	11093
四个	11094
▁sizes	11095
▁hotels	11096
ighters	11097
性能	11098
oca	11099
▁genre	11100
▁printed	11101
▁Hung	11102
大队	11103
疫情防控工作	11104
ikipedia	11105
through	11106
ordon	11107
cs	11108
▁lucky	11109
▁heavily	11110
▁FL	11111
发表	11112
Health	11113
▁developer	11114
▁CC	11115
offs	11116
Good	11117
▁rug	11118
че	11119
过了	11120
举报	11121
▁Estate	11122
是有	11123
▁vocal	11124
▁exists	11125
▁heading	11126
回顾	11127
▁Buff	11128
▁opposite	11129
orce	11130
▁Belg	11131
[]	11132
mont	11133
▁usage	11134
▁pione	11135
▁gear	11136
South	11137
▁rely	11138
▁Unit	11139
TML	11140
án	11141
▁Agric	11142
owed	11143
edge	11144
▁inner	11145
▁infection	11146
包装	11147
imp	11148
清洁	11149
aver	11150
小说	11151
生长	11152
▁Brand	11153
▁prominent	11154
isted	11155
Aust	11156
假期	11157
▁unve	11158
天下	11159
▁walked	11160
好像	11161
_{	11162
你会	11163
食用	11164
oute	11165
▁Five	11166
世纪	11167
▁Talk	11168
irts	11169
сь	11170
排查	11171
▁responded	11172
uther	11173
师范	11174
▁src	11175
oyd	11176
不多	11177
▁SE	11178
Model	11179
issue	11180
▁Judge	11181
▁contained	11182
▁denied	11183
ulating	11184
哪个	11185
IVE	11186
▁amounts	11187
生活的	11188
Sign	11189
▁displayed	11190
oker	11191
名称	11192
▁attending	11193
▁Solutions	11194
▁stuck	11195
orneys	11196
rep	11197
BD	11198
详情	11199
scribe	11200
frac	11201
▁horror	11202
▁Rick	11203
ricts	11204
▁feelings	11205
时尚	11206
otted	11207
▁Spirit	11208
成分	11209
void	11210
▁dur	11211
的原因	11212
境外	11213
▁stored	11214
▁module	11215
刚刚	11216
▁hook	11217
PU	11218
▁gall	11219
▁crazy	11220
▁DO	11221
ypes	11222
上述	11223
▁Mother	11224
▁artistic	11225
quire	11226
low	11227
进步	11228
doc	11229
Head	11230
▁Early	11231
依据	11232
检察	11233
良好	11234
可能是	11235
足够	11236
▁mm	11237
yer	11238
raig	11239
Child	11240
▁trigger	11241
api	11242
▁Reserved	11243
▁Text	11244
▁butter	11245
ested	11246
▁dish	11247
▁Beat	11248
izon	11249
▁fundra	11250
▁arrival	11251
iang	11252
erk	11253
到的	11254
ync	11255
▁ownership	11256
▁pp	11257
ichol	11258
夫妻	11259
▁errors	11260
意味	11261
▁squad	11262
▁hang	11263
▁knock	11264
don	11265
▁stable	11266
▁enthusi	11267
几天	11268
asant	11269
坚定	11270
朋友圈	11271
include	11272
aceut	11273
▁existence	11274
▁Record	11275
▁expanding	11276
last	11277
mouth	11278
教育部	11279
十二	11280
aws	11281
"><	11282
▁tact	11283
▁hosts	11284
▁Il	11285
▁mac	11286
▁Electric	11287
主体	11288
▁Updated	11289
Fact	11290
▁kne	11291
fa	11292
网络配图	11293
▁Select	11294
likely	11295
ITY	11296
igg	11297
▁Pod	11298
动态	11299
March	11300
▁noise	11301
Hand	11302
▁slowly	11303
▁Lat	11304
build	11305
▁Khan	11306
▁calendar	11307
▁align	11308
Sen	11309
大型	11310
▁deleg	11311
司机	11312
▁mile	11313
January	11314
▁prest	11315
▁Missouri	11316
▁Mars	11317
ijing	11318
Prov	11319
损失	11320
▁dad	11321
万人	11322
▁semi	11323
▁albums	11324
Paul	11325
▁privile	11326
更好的	11327
本地	11328
▁Veter	11329
有个	11330
配置	11331
印度	11332
eah	11333
引发	11334
bra	11335
▁Gil	11336
大道	11337
hist	11338
Wind	11339
embers	11340
elfare	11341
▁observed	11342
▁tourism	11343
▁API	11344
▁Alb	11345
▁pounds	11346
▁Ban	11347
▁Cambridge	11348
▁Private	11349
不一样	11350
wick	11351
有很多	11352
公益	11353
嫌疑	11354
onymous	11355
▁surge	11356
Mc	11357
▁Fle	11358
▁Method	11359
▁traveling	11360
User	11361
锻炼	11362
▁headed	11363
▁Website	11364
最佳	11365
▁recruit	11366
oked	11367
Dan	11368
▁secondary	11369
apse	11370
▁territory	11371
▁sevent	11372
▁los	11373
maker	11374
▁falls	11375
论文	11376
aux	11377
▁Mess	11378
▁wider	11379
权益	11380
▁workshop	11381
▁Victor	11382
agu	11383
▁campaigns	11384
▁explo	11385
▁ministry	11386
▁FC	11387
▁somewhere	11388
邀请	11389
▁Utah	11390
▁Michel	11391
温馨	11392
Config	11393
▁Nature	11394
abs	11395
人大	11396
审查	11397
color	11398
战争	11399
har	11400
都没有	11401
▁literally	11402
明星	11403
Connect	11404
▁Crit	11405
rs	11406
BR	11407
urches	11408
▁vit	11409
ainer	11410
▁clothes	11411
▁themes	11412
▁operated	11413
▁Java	11414
▁Pa	11415
▁introduce	11416
▁unusual	11417
dam	11418
▁tradem	11419
▁define	11420
▁protocol	11421
ummer	11422
▁funded	11423
▁relative	11424
▁jazz	11425
▁Marvel	11426
ouses	11427
▁merch	11428
▁$\	11429
Aut	11430
се	11431
罗斯	11432
▁UC	11433
▁proved	11434
ishment	11435
aware	11436
适应	11437
赚钱	11438
拍摄	11439
▁worker	11440
oa	11441
first	11442
web	11443
inos	11444
两人	11445
erto	11446
chell	11447
▁Corp	11448
igrant	11449
▁Politics	11450
vi	11451
▁HIV	11452
aceutical	11453
▁strange	11454
▁Wi	11455
(),	11456
气温	11457
ationally	11458
▁Battle	11459
▁DJ	11460
Je	11461
▁”	11462
关心	11463
ibraries	11464
Field	11465
循环	11466
AE	11467
abetes	11468
支部	11469
Free	11470
时光	11471
↓↓↓	11472
认证	11473
▁Melbourne	11474
▁disaster	11475
▁Wolf	11476
▁brothers	11477
ourt	11478
会在	11479
义务	11480
▁wildlife	11481
▁signature	11482
▁producers	11483
探索	11484
▁commonly	11485
itis	11486
▁Dor	11487
▁dialogue	11488
手段	11489
▁Galaxy	11490
▁breast	11491
意外	11492
oli	11493
有时	11494
▁Samsung	11495
▁authentic	11496
▁hell	11497
的影响	11498
▁fro	11499
anted	11500
▁captured	11501
随后	11502
▁Tit	11503
atherine	11504
回来	11505
ressed	11506
▁teeth	11507
风景	11508
使命	11509
生素	11510
▁expenses	11511
▁Scottish	11512
▁roots	11513
▁Move	11514
▁permit	11515
▁Queens	11516
▁tip	11517
▁losses	11518
▁dramatic	11519
▁sensitive	11520
▁Hal	11521
助力	11522
辅导	11523
▁compare	11524
▁Money	11525
放心	11526
▁chicken	11527
▁ecosystem	11528
▁Budd	11529
▁Anne	11530
▁->	11531
adi	11532
随时	11533
pert	11534
Whe	11535
▁segment	11536
pring	11537
▁Harvard	11538
难以	11539
orous	11540
吃饭	11541
▁Among	11542
▁compr	11543
Build	11544
rape	11545
Review	11546
杭州	11547
ASS	11548
PG	11549
▁survive	11550
imore	11551
▁diplom	11552
eli	11553
黄金	11554
▁Therefore	11555
▁oldest	11556
等待	11557
▁directors	11558
▁Try	11559
▁Blu	11560
utral	11561
▁Ott	11562
血压	11563
▁cyber	11564
DR	11565
▁CS	11566
女子	11567
形势	11568
▁Pharm	11569
▁Turk	11570
▁Brooklyn	11571
▁trem	11572
予以	11573
▁Autom	11574
▁associate	11575
▁addresses	11576
场景	11577
▁wake	11578
iva	11579
West	11580
pense	11581
心情	11582
▁М	11583
股份	11584
▁depends	11585
▁consent	11586
email	11587
瞬间	11588
▁iOS	11589
▁piano	11590
成就	11591
query	11592
▁gifts	11593
各个	11594
人民共和国	11595
▁una	11596
▁passes	11597
di	11598
▁Doctor	11599
▁Father	11600
▁agenda	11601
人士	11602
水果	11603
▁workplace	11604
imm	11605
▁troops	11606
isan	11607
yles	11608
ologists	11609
男生	11610
资本	11611
▁Ark	11612
▁к	11613
名的	11614
担当	11615
по	11616
▁hole	11617
▁whilst	11618
▁races	11619
公务员	11620
▁Burn	11621
▁Golf	11622
推出	11623
otton	11624
▁withdraw	11625
现在的	11626
一边	11627
进口	11628
▁Come	11629
▁Shel	11630
▁query	11631
▁Without	11632
▁jail	11633
INE	11634
创建	11635
▁choosing	11636
超级	11637
▁Ped	11638
▁Lib	11639
▁q	11640
▁phr	11641
position	11642
中华人民共和国	11643
chain	11644
vironments	11645
线路	11646
▁Dur	11647
▁EX	11648
▁Planning	11649
各级	11650
▁glob	11651
▁Howard	11652
▁Catal	11653
▁lifetime	11654
▁operator	11655
▁residence	11656
ча	11657
oenix	11658
▁Property	11659
▁dollar	11660
▁reporter	11661
▁discip	11662
融合	11663
搜索	11664
Det	11665
raid	11666
▁removal	11667
考察	11668
▁bact	11669
▁Which	11670
▁confront	11671
固定	11672
bn	11673
满意	11674
VI	11675
▁Standard	11676
HR	11677
▁Cho	11678
▁Tai	11679
▁tracking	11680
的基础	11681
▁小	11682
仍然	11683
▁Creative	11684
华为	11685
▁tied	11686
回到	11687
▁inject	11688
▁upgrade	11689
onia	11690
▁Tru	11691
▁PRO	11692
▁Gov	11693
abil	11694
▁Ok	11695
▁Jess	11696
riculum	11697
University	11698
▁cheese	11699
▁Trib	11700
▁democracy	11701
贵州	11702
▁loyal	11703
rac	11704
empl	11705
▁mask	11706
▁requested	11707
▁Steel	11708
▁resort	11709
非法	11710
abling	11711
▁fired	11712
上一	11713
▁Dean	11714
▁theater	11715
▁Marine	11716
后台	11717
▁Archives	11718
元素	11719
THE	11720
▁adj	11721
采购	11722
▁everybody	11723
okes	11724
acular	11725
▁viewers	11726
search	11727
广泛	11728
▁peak	11729
rowse	11730
▁Being	11731
ictions	11732
selling	11733
这两	11734
entle	11735
▁Keep	11736
点赞	11737
▁entrance	11738
▁ca	11739
尊重	11740
cd	11741
情感	11742
▁Tel	11743
си	11744
▁BC	11745
▁impacts	11746
▁NASA	11747
蔬菜	11748
▁Pier	11749
▁Oklahoma	11750
Play	11751
▁samples	11752
iatric	11753
}}	11754
olitan	11755
▁responses	11756
▁promotion	11757
LP	11758
▁licensed	11759
国务	11760
▁copies	11761
Trump	11762
▁speakers	11763
▁Nash	11764
▁spots	11765
▁deck	11766
▁Tokyo	11767
▁Made	11768
创作	11769
track	11770
日期	11771
客服	11772
▁chocolate	11773
▁Register	11774
吸收	11775
▁speaks	11776
▁Kentucky	11777
olo	11778
在于	11779
April	11780
▁recru	11781
AI	11782
▁classroom	11783
MO	11784
▁Spot	11785
▁Sab	11786
▁continu	11787
▁Region	11788
的前	11789
理财	11790
的方法	11791
witzer	11792
FP	11793
▁une	11794
也不会	11795
anka	11796
▁Sex	11797
天然	11798
▁grateful	11799
olk	11800
ctic	11801
▁neither	11802
▁ABC	11803
Sept	11804
▁offensive	11805
Element	11806
bin	11807
▁employer	11808
▁intention	11809
▁publicly	11810
▁Core	11811
udes	11812
▁TR	11813
深度	11814
例如	11815
▁trials	11816
寻找	11817
▁dust	11818
是我	11819
angel	11820
恋爱	11821
estone	11822
▁ham	11823
▁Ta	11824
▁penalty	11825
▁Century	11826
▁pushed	11827
after	11828
▁Sale	11829
▁Bron	11830
▁quote	11831
区别	11832
▁Justin	11833
财务	11834
June	11835
Because	11836
类似	11837
体温	11838
aki	11839
▁NC	11840
▁Girls	11841
财富	11842
青岛	11843
▁behaviour	11844
法规	11845
看起来	11846
▁Compet	11847
UP	11848
做出	11849
▁reven	11850
▁Dutch	11851
ifact	11852
▁absor	11853
人工	11854
iology	11855
▁criteria	11856
Search	11857
▁Vancouver	11858
指标	11859
围绕	11860
▁Working	11861
▁seeks	11862
▁pride	11863
▁comic	11864
▁loop	11865
派出所	11866
WS	11867
ibl	11868
▁lowest	11869
China	11870
agers	11871
▁violent	11872
平方米	11873
曝光	11874
zens	11875
▁ranging	11876
收益	11877
▁suffer	11878
ippi	11879
▁intense	11880
▁EP	11881
更有	11882
百姓	11883
▁Conserv	11884
▁coaching	11885
适当	11886
breaking	11887
veland	11888
违规	11889
North	11890
ointed	11891
马上	11892
Dem	11893
运用	11894
▁bold	11895
▁assume	11896
天天	11897
enna	11898
▁Sustain	11899
同学们	11900
▁Cape	11901
▁Stew	11902
▁deeper	11903
▁Exp	11904
▁Phill	11905
ellows	11906
eding	11907
Point	11908
孩子们	11909
▁equally	11910
ders	11911
UE	11912
▁Bloom	11913
利于	11914
▁tone	11915
▁Tele	11916
▁belief	11917
Ag	11918
ía	11919
screen	11920
▁domin	11921
Great	11922
睡眠	11923
养殖	11924
把握	11925
自信	11926
▁comprom	11927
否则	11928
▁Duke	11929
▁echo	11930
▁alert	11931
▁Paper	11932
▁Cow	11933
▁vacation	11934
面前	11935
▁Level	11936
▁Mom	11937
▁Bird	11938
▁Album	11939
July	11940
样子	11941
▁Gab	11942
奖励	11943
人力	11944
itting	11945
uits	11946
的感觉	11947
▁password	11948
▁vert	11949
互动	11950
▁Crime	11951
roduction	11952
▁buff	11953
▁workforce	11954
▁shell	11955
▁molec	11956
▁banking	11957
对比	11958
market	11959
▁explan	11960
省委	11961
Public	11962
专题	11963
▁Hind	11964
▁orient	11965
这位	11966
▁whenever	11967
▁clock	11968
▁Hamilton	11969
▁Dance	11970
▁thinks	11971
cut	11972
▁grounds	11973
▁Roberts	11974
▁gathered	11975
witzerland	11976
▁indicate	11977
▁Source	11978
电池	11979
扩大	11980
▁Andy	11981
▁Maria	11982
▁complaint	11983
讲解	11984
VP	11985
▁pour	11986
▁bonus	11987
面临	11988
party	11989
ervations	11990
缓解	11991
▁harder	11992
uten	11993
ні	11994
▁maps	11995
only	11996
▁actively	11997
▁Argent	11998
▁Gene	11999
▁Analysis	12000
▁objective	12001
rama	12002
rior	12003
▁decent	12004
bound	12005
ailand	12006
ня	12007
机器	12008
amer	12009
▁devast	12010
▁McK	12011
▁soccer	12012
相互	12013
minute	12014
▁greatly	12015
oscow	12016
▁Bah	12017
▁Liverpool	12018
脂肪	12019
Code	12020
聊天	12021
▁pill	12022
▁tum	12023
BE	12024
▁myth	12025
▁panels	12026
▁sections	12027
▁addressed	12028
通行	12029
called	12030
▁hip	12031
税务	12032
▁lapt	12033
reement	12034
▁Chel	12035
▁chap	12036
icut	12037
watch	12038
▁staying	12039
过来	12040
Manager	12041
ionally	12042
指数	12043
合法	12044
util	12045
Russ	12046
▁grants	12047
痛苦	12048
指南	12049
▁coup	12050
▁USD	12051
▁Wy	12052
▁Dak	12053
inth	12054
bing	12055
▁Index	12056
rock	12057
▁Castle	12058
amous	12059
赶紧	12060
aro	12061
▁二	12062
▁exclus	12063
▁compat	12064
Day	12065
救援	12066
贫困	12067
很快	12068
异常	12069
DI	12070
不良	12071
期的	12072
血液	12073
自主	12074
▁Fant	12075
де	12076
Har	12077
▁operates	12078
▁myster	12079
umental	12080
Google	12081
志愿者	12082
专门	12083
▁Trail	12084
大学生	12085
才会	12086
▁conver	12087
▁refused	12088
▁parks	12089
▁Walker	12090
▁provision	12091
cal	12092
▁enjoying	12093
▁cameras	12094
▁tackle	12095
▁homeless	12096
▁&&	12097
▁tonight	12098
▁Military	12099
及其	12100
▁新	12101
▁pleasure	12102
▁criticism	12103
东北	12104
表面	12105
▁Olympics	12106
专业的	12107
▁Capitol	12108
▁SH	12109
紧张	12110
▁unfort	12111
▁algorith	12112
▁minim	12113
▁screens	12114
意味着	12115
▁distingu	12116
▁sid	12117
izza	12118
create	12119
中国共产党	12120
▁Chapter	12121
业主	12122
▁Bath	12123
真正的	12124
store	12125
▁holidays	12126
超市	12127
▁г	12128
NO	12129
▁Andre	12130
wp	12131
▁Plant	12132
stan	12133
▁regime	12134
大利	12135
ugh	12136
▁BY	12137
▁investing	12138
扶贫	12139
信用	12140
▁Na	12141
教材	12142
▁junior	12143
▁Having	12144
rating	12145
TY	12146
医保	12147
▁leather	12148
▁earnings	12149
▁poetry	12150
disc	12151
付出	12152
GS	12153
▁armed	12154
▁uncle	12155
▁Classic	12156
高效	12157
▁estimates	12158
iem	12159
▁swimming	12160
▁unlikely	12161
▁assigned	12162
])	12163
角色	12164
achment	12165
▁mood	12166
发动	12167
issippi	12168
扫描	12169
统筹	12170
传递	12171
▁thin	12172
告知	12173
Euro	12174
▁titled	12175
▁Computer	12176
ardo	12177
assion	12178
GR	12179
▁defensive	12180
▁inaug	12181
Page	12182
Link	12183
▁OK	12184
▁opposed	12185
Through	12186
▁lad	12187
明天	12188
▁defeat	12189
氛围	12190
▁buyers	12191
▁rally	12192
▁Episode	12193
▁computers	12194
fers	12195
MD	12196
▁paintings	12197
祝福	12198
leans	12199
▁routine	12200
妻子	12201
宣布	12202
▁cust	12203
wall	12204
lementary	12205
▁McG	12206
olen	12207
在这个	12208
▁Visit	12209
orgeous	12210
▁roughly	12211
打击	12212
▁oblig	12213
istent	12214
▁Pur	12215
▁protests	12216
rones	12217
orses	12218
▁sixth	12219
▁universe	12220
旅行	12221
商家	12222
▁fault	12223
▁kit	12224
▁Kath	12225
ORT	12226
纪念	12227
▁Woman	12228
aria	12229
linary	12230
直到	12231
▁donations	12232
▁smile	12233
当天	12234
cat	12235
同事	12236
▁Content	12237
len	12238
▁True	12239
▁Gram	12240
Bre	12241
ogs	12242
仪式	12243
热线	12244
俄罗斯	12245
anne	12246
▁sacr	12247
▁Lu	12248
▁offense	12249
▁forum	12250
▁Antonio	12251
pop	12252
造型	12253
rieved	12254
国务院	12255
观众	12256
▁Update	12257
提交	12258
▁alarm	12259
▁Jonathan	12260
Som	12261
FS	12262
▁neck	12263
概念	12264
很容易	12265
ILL	12266
纷纷	12267
先后	12268
▁currency	12269
main	12270
semble	12271
▁Unfort	12272
县委	12273
的人生	12274
你要	12275
▁Ec	12276
ithub	12277
允许	12278
agic	12279
▁meals	12280
jpg	12281
▁Viol	12282
▁Language	12283
▁gym	12284
中小	12285
▁sharp	12286
▁Bull	12287
职位	12288
sche	12289
die	12290
建成	12291
▁Sony	12292
▁Freedom	12293
▁packages	12294
laim	12295
ся	12296
/**	12297
▁employed	12298
oust	12299
人家	12300
enger	12301
mers	12302
ounced	12303
一张	12304
irates	12305
▁sin	12306
姐姐	12307
▁concluded	12308
▁Obs	12309
ublin	12310
raf	12311
支撑	12312
▁SO	12313
ishers	12314
Info	12315
▁Employ	12316
Ext	12317
▁divided	12318
ugg	12319
Array	12320
▁tie	12321
▁Scholars	12322
▁clim	12323
▁pushing	12324
▁rescue	12325
▁superior	12326
quiry	12327
▁tap	12328
▁cock	12329
▁ethnic	12330
成年	12331
隐患	12332
出门	12333
Ant	12334
iffer	12335
▁concepts	12336
▁delighted	12337
了吗	12338
TP	12339
ля	12340
CAA	12341
▁Must	12342
社会主义	12343
▁amongst	12344
也在	12345
▁voices	12346
▁ships	12347
▁cancel	12348
▁License	12349
ected	12350
▁SD	12351
▁boxes	12352
▁Sri	12353
▁Sac	12354
zed	12355
athon	12356
美术	12357
▁utility	12358
atured	12359
▁destroyed	12360
▁credits	12361
▁operators	12362
▁anxiety	12363
▁Less	12364
▁renown	12365
▁lake	12366
战斗	12367
想象	12368
roversial	12369
oni	12370
▁Denver	12371
ibbean	12372
▁workshops	12373
Take	12374
▁Sweden	12375
Have	12376
会上	12377
线下	12378
信号	12379
▁euro	12380
ropical	12381
物理	12382
展现	12383
bow	12384
aba	12385
▁neighb	12386
▁god	12387
典型	12388
service	12389
show	12390
深刻	12391
此时	12392
彻底	12393
问题的	12394
Both	12395
Equ	12396
▁courtesy	12397
是最	12398
ramework	12399
单元	12400
▁exit	12401
▁Holl	12402
ussion	12403
▁gang	12404
Resp	12405
attan	12406
出租	12407
lined	12408
第五	12409
Men	12410
从来	12411
General	12412
Str	12413
▁ther	12414
▁Days	12415
MI	12416
▁Reading	12417
▁bags	12418
一个月	12419
新鲜	12420
肌肉	12421
ptions	12422
▁danger	12423
zing	12424
▁breaks	12425
▁warned	12426
▁breath	12427
yler	12428
▁loving	12429
▁Block	12430
▁Pitts	12431
玩家	12432
▁indicated	12433
似乎	12434
▁prosecut	12435
日前	12436
司法	12437
▁Han	12438
css	12439
outheast	12440
▁coaches	12441
ourse	12442
▁ties	12443
ть	12444
▁Mun	12445
▁listing	12446
▁shortly	12447
警察	12448
▁Kennedy	12449
▁flags	12450
▁Thompson	12451
▁Lane	12452
▁emails	12453
▁mystery	12454
Use	12455
▁naturally	12456
▁grid	12457
▁secretary	12458
中间	12459
餐饮	12460
▁Cann	12461
bes	12462
▁meters	12463
▁Secret	12464
森林	12465
java	12466
▁accompan	12467
▁relation	12468
住宅	12469
▁resolve	12470
方面的	12471
▁liv	12472
传染	12473
环保	12474
James	12475
abies	12476
▁这	12477
认定	12478
haust	12479
▁NBC	12480
▁Initi	12481
▁tours	12482
▁desper	12483
▁graphics	12484
▁trips	12485
Related	12486
▁Orleans	12487
▁obst	12488
房地产	12489
入口	12490
局长	12491
▁Orange	12492
▁Challenge	12493
Life	12494
isd	12495
uv	12496
不上	12497
▁occurs	12498
进去	12499
▁Break	12500
leting	12501
▁Kl	12502
▁wireless	12503
▁mistake	12504
olph	12505
▁Such	12506
人民币	12507
其它	12508
paren	12509
游客	12510
▁Athlet	12511
▁conscious	12512
igs	12513
▁Parent	12514
▁incent	12515
ormal	12516
▁satellite	12517
otion	12518
▁disrupt	12519
前的	12520
▁Friends	12521
科目	12522
▁Stars	12523
▁lett	12524
▁Beijing	12525
▁Terms	12526
▁printing	12527
izations	12528
▁FBI	12529
▁bow	12530
▁opinions	12531
▁absolute	12532
▁tale	12533
你是	12534
papers	12535
ICE	12536
kee	12537
▁Gulf	12538
▁stability	12539
社交	12540
Port	12541
▁blank	12542
平衡	12543
▁Legisl	12544
▁gal	12545
▁Exam	12546
▁formation	12547
▁Bruce	12548
Big	12549
▁towns	12550
▁imper	12551
相同	12552
▁marijuana	12553
临时	12554
▁suicide	12555
▁suddenly	12556
▁legendary	12557
▁Gas	12558
MB	12559
▁affairs	12560
uj	12561
▁allegedly	12562
印象	12563
呈现	12564
▁Urban	12565
secutive	12566
周年	12567
日上午	12568
▁setup	12569
大小	12570
bul	12571
房产	12572
▁lyrics	12573
▁inspire	12574
ACK	12575
难度	12576
▁adequ	12577
本来	12578
将会	12579
▁salary	12580
Select	12581
▁rival	12582
▁evil	12583
子女	12584
Message	12585
▁garage	12586
▁legit	12587
unate	12588
Pal	12589
uct	12590
▁hub	12591
▁Empire	12592
▁delivers	12593
定期	12594
label	12595
▁anyway	12596
omic	12597
▁minimal	12598
▁Effect	12599
有哪些	12600
流行	12601
▁Maine	12602
▁moon	12603
版本	12604
版权归原作者	12605
▁screening	12606
当中	12607
看来	12608
source	12609
▁Chamber	12610
▁Prior	12611
▁Domin	12612
▁Greece	12613
截止	12614
acious	12615
定位	12616
nell	12617
▁veterans	12618
********	12619
你可以	12620
▁elsewhere	12621
▁Gary	12622
别人的	12623
upload	12624
ribution	12625
▁Excell	12626
▁Russell	12627
▁desc	12628
独特	12629
▁turb	12630
情况下	12631
▁container	12632
▁Rele	12633
▁preferred	12634
缴费	12635
Make	12636
▁Cleveland	12637
学术	12638
grade	12639
▁Comment	12640
标志	12641
▁Bor	12642
▁ratio	12643
▁Leader	12644
▁Jennifer	12645
▁annually	12646
enny	12647
之中	12648
▁);	12649
关节	12650
▁Interview	12651
▁Solar	12652
药品	12653
books	12654
一致	12655
TI	12656
▁Kings	12657
▁WH	12658
计算机	12659
card	12660
物品	12661
道理	12662
town	12663
便宜	12664
全程	12665
issa	12666
副主任	12667
dev	12668
▁IV	12669
▁Theater	12670
ega	12671
对你	12672
有时候	12673
Rich	12674
▁twe	12675
tem	12676
annah	12677
▁Singh	12678
aration	12679
▁overcome	12680
Tech	12681
Box	12682
社保	12683
model	12684
▁Studios	12685
喜欢的	12686
书法	12687
piece	12688
一路	12689
▁Cole	12690
oda	12691
▁nonprofit	12692
▁advertis	12693
共享	12694
backs	12695
▁Self	12696
车型	12697
▁Together	12698
▁Bus	12699
▁Pear	12700
原文	12701
▁User	12702
▁acres	12703
副书记	12704
mate	12705
▁anymore	12706
▁passenger	12707
▁Mind	12708
zi	12709
▁survival	12710
完美	12711
▁Host	12712
▁designers	12713
实习	12714
布局	12715
热情	12716
▁och	12717
Download	12718
当你	12719
▁Object	12720
门诊	12721
维生素	12722
▁Malaysia	12723
^{	12724
▁Sometimes	12725
▁Path	12726
▁coc	12727
▁Million	12728
ivals	12729
▁Portland	12730
dr	12731
SON	12732
▁Temple	12733
▁Jazz	12734
UST	12735
hard	12736
▁Brexit	12737
消化	12738
Override	12739
▁uniform	12740
▁中国	12741
edly	12742
cedes	12743
空调	12744
很好的	12745
Alex	12746
▁casual	12747
reach	12748
hoods	12749
▁locally	12750
▁globally	12751
▁Products	12752
▁tennis	12753
▁stayed	12754
emed	12755
terior	12756
Email	12757
▁petition	12758
整改	12759
parency	12760
▁Rain	12761
Av	12762
▁Gib	12763
▁Joh	12764
▁kilomet	12765
▁Om	12766
▁cancell	12767
vere	12768
otype	12769
▁prev	12770
▁dual	12771
▁borrow	12772
zo	12773
lee	12774
传承	12775
▁afraid	12776
在此	12777
ques	12778
Local	12779
▁Quality	12780
舒服	12781
尝试	12782
说了	12783
▁Naz	12784
▁lets	12785
century	12786
应聘	12787
▁instant	12788
▁Louisiana	12789
emet	12790
规律	12791
Business	12792
▁robust	12793
矛盾	12794
等级	12795
星期	12796
▁Alan	12797
▁ра	12798
Bel	12799
ски	12800
button	12801
▁Arabia	12802
量的	12803
▁Iron	12804
▁Moscow	12805
criptions	12806
初心	12807
tech	12808
uns	12809
Stream	12810
中考	12811
▁movements	12812
▁boards	12813
oret	12814
带来的	12815
依旧	12816
IE	12817
▁resil	12818
物流	12819
jan	12820
has	12821
ido	12822
▁gathering	12823
▁finger	12824
▁Dick	12825
▁Palace	12826
▁Dubai	12827
层次	12828
prises	12829
▁Aren	12830
▁Sud	12831
▁donation	12832
apache	12833
辈子	12834
不需要	12835
看了	12836
rus	12837
▁hired	12838
出发	12839
riven	12840
▁genetic	12841
▁abortion	12842
▁Nap	12843
丰富的	12844
▁sed	12845
plus	12846
▁cake	12847
▁tu	12848
Meanwhile	12849
习近平总书记	12850
▁Kate	12851
xml	12852
▁Roc	12853
▁Oscar	12854
gt	12855
▁renowned	12856
▁Snow	12857
▁Baby	12858
▁engineers	12859
▁integrity	12860
leted	12861
反复	12862
oric	12863
▁nights	12864
海南	12865
▁Adams	12866
inciple	12867
ateral	12868
/>	12869
及以上	12870
▁pricing	12871
▁viewing	12872
鸡蛋	12873
将在	12874
png	12875
leep	12876
▁damaged	12877
▁chronic	12878
▁relating	12879
▁Nichol	12880
上方	12881
Ben	12882
▁Esp	12883
护理	12884
October	12885
乡镇	12886
▁centuries	12887
反而	12888
▁Thus	12889
aved	12890
▁romantic	12891
▁antib	12892
▁bottle	12893
▁crown	12894
erse	12895
清晰	12896
主要是	12897
自觉	12898
▁dozen	12899
▁overseas	12900
Following	12901
▁Machine	12902
▁wis	12903
▁crack	12904
▁graphic	12905
组合	12906
地位	12907
▁engines	12908
local	12909
Rober	12910
utors	12911
▁displays	12912
mi	12913
▁tons	12914
▁combine	12915
aa	12916
%;	12917
};	12918
▁Steven	12919
▁Could	12920
面向	12921
▁Associate	12922
▁enorm	12923
oning	12924
▁Race	12925
功效	12926
▁applying	12927
▁Economics	12928
▁blind	12929
▁Broadway	12930
▁tremend	12931
▁careful	12932
fund	12933
max	12934
▁elder	12935
跟着	12936
正是	12937
orer	12938
▁Very	12939
小心	12940
照顾	12941
▁Vi	12942
Content	12943
▁renewable	12944
▁unem	12945
▁admit	12946
▁footage	12947
▁careers	12948
▁Bond	12949
tains	12950
▁fantasy	12951
oting	12952
▁Pant	12953
init	12954
▁Birth	12955
alling	12956
流动	12957
放松	12958
▁LED	12959
Cent	12960
失败	12961
▁Labour	12962
▁Summit	12963
glas	12964
intendo	12965
children	12966
viously	12967
ictionary	12968
▁codes	12969
Video	12970
▁shr	12971
▁Impact	12972
承诺	12973
Color	12974
▁Hig	12975
▁desired	12976
▁minds	12977
ango	12978
best	12979
illance	12980
roph	12981
真是	12982
▁fiscal	12983
umph	12984
含有	12985
phony	12986
▁tries	12987
▁periods	12988
agh	12989
▁Baltimore	12990
Ref	12991
▁NO	12992
Former	12993
▁substance	12994
▁stocks	12995
汇总	12996
职责	12997
▁attitude	12998
▁bunch	12999
▁Phoenix	13000
室内	13001
那就	13002
ме	13003
hot	13004
▁Ave	13005
处置	13006
▁weapon	13007
urricane	13008
的一种	13009
▁Following	13010
rection	13011
''	13012
▁financing	13013
▁Political	13014
▁jury	13015
▁correctly	13016
▁unn	13017
Three	13018
▁loud	13019
December	13020
▁refugees	13021
老公	13022
为你	13023
▁Reserve	13024
▁judges	13025
Tom	13026
内蒙古	13027
▁如果	13028
beat	13029
▁emotions	13030
▁riding	13031
▁]	13032
▁Tes	13033
▁districts	13034
father	13035
shore	13036
ULL	13037
▁portray	13038
woman	13039
iop	13040
▁sophistic	13041
▁directory	13042
▁modified	13043
购物	13044
бо	13045
陪伴	13046
我在	13047
▁founding	13048
气质	13049
▁Deputy	13050
▁asks	13051
perform	13052
▁flour	13053
留下	13054
ku	13055
▁Lawrence	13056
▁Hug	13057
▁Cars	13058
plex	13059
▁reflects	13060
▁spokesman	13061
wear	13062
▁surviv	13063
外出	13064
公司的	13065
对此	13066
▁Gordon	13067
Cap	13068
▁Caribbean	13069
▁keys	13070
▁Indonesia	13071
burn	13072
▁Kal	13073
写作	13074
perties	13075
▁Movies	13076
装备	13077
▁Thailand	13078
Ang	13079
▁assembly	13080
论坛	13081
账户	13082
acht	13083
▁honored	13084
▁tort	13085
实际上	13086
▁deadline	13087
▁lesson	13088
▁Appro	13089
assment	13090
无论是	13091
ifest	13092
▁Bio	13093
▁Nort	13094
航空	13095
▁invas	13096
无数	13097
▁declined	13098
▁Mort	13099
до	13100
▁Brew	13101
▁Sov	13102
填写	13103
ellers	13104
oj	13105
▁Nelson	13106
▁Fame	13107
▁hide	13108
人都	13109
▁**	13110
▁marine	13111
▁mountains	13112
▁drives	13113
aco	13114
治愈	13115
▁hiring	13116
嫌疑人	13117
▁safely	13118
夏天	13119
▁Side	13120
而不	13121
▁Xbox	13122
▁healing	13123
▁flower	13124
▁Finally	13125
▁Mexican	13126
▁Faculty	13127
离婚	13128
▁packed	13129
acter	13130
▁mathem	13131
漂亮	13132
▁Mand	13133
ку	13134
▁enabled	13135
▁hybrid	13136
▁pollution	13137
▁Cop	13138
▁LE	13139
▁Fast	13140
电商	13141
诊断	13142
通告	13143
显得	13144
▁gene	13145
▁Senator	13146
▁keen	13147
▁adoption	13148
▁worried	13149
金额	13150
而不是	13151
▁tagged	13152
读者	13153
OUR	13154
){	13155
逻辑	13156
▁newest	13157
▁diamond	13158
十四	13159
▁eggs	13160
Af	13161
抖音	13162
elect	13163
▁Buck	13164
▁Charlie	13165
dec	13166
周围	13167
Hz	13168
大众	13169
▁中	13170
emetery	13171
▁Graham	13172
▁reviewed	13173
▁Anim	13174
cure	13175
▁auction	13176
Ms	13177
lad	13178
连接	13179
▁ein	13180
▁URL	13181
▁ruled	13182
▁preced	13183
▁muscle	13184
oly	13185
▁hack	13186
▁estimate	13187
▁layout	13188
▁receives	13189
▁finest	13190
道德	13191
▁routes	13192
Super	13193
高铁	13194
▁Fellows	13195
▁suppliers	13196
urious	13197
comed	13198
▁attempted	13199
▁IC	13200
▁specified	13201
▁refresh	13202
▁Ty	13203
不太	13204
who	13205
▁duties	13206
▁gotten	13207
▁eastern	13208
心中	13209
▁Survey	13210
▁Nik	13211
object	13212
▁begun	13213
▁Blood	13214
▁Patri	13215
二手	13216
▁epic	13217
▁touchdown	13218
首次	13219
▁Against	13220
ultane	13221
ados	13222
本书	13223
▁hitting	13224
ashing	13225
▁entity	13226
可见	13227
▁promised	13228
enez	13229
等奖	13230
▁margin	13231
brit	13232
layout	13233
▁Orig	13234
▁Email	13235
▁math	13236
▁Nob	13237
至今	13238
▁Rap	13239
Index	13240
大家都	13241
带领	13242
lem	13243
还没	13244
▁wanting	13245
不出	13246
Learn	13247
▁Taiwan	13248
蓝色	13249
find	13250
▁Anna	13251
可爱	13252
▁reporters	13253
▁Jews	13254
分子	13255
▁toler	13256
▁Ca	13257
▁Tower	13258
▁inclusion	13259
特征	13260
人民医院	13261
hattan	13262
▁Title	13263
▁pul	13264
master	13265
AME	13266
▁ax	13267
▁Poland	13268
Love	13269
▁therap	13270
群体	13271
▁("	13272
olean	13273
养生	13274
别的	13275
快递	13276
批准	13277
无人	13278
注重	13279
▁checks	13280
发的	13281
▁dé	13282
▁ranks	13283
事务	13284
后面	13285
两年	13286
▁tribute	13287
November	13288
▁Campaign	13289
▁ft	13290
▁automatic	13291
▁Tree	13292
▁Cou	13293
▁Dat	13294
▁diagnosis	13295
▁ren	13296
August	13297
打印	13298
▁vent	13299
Share	13300
Based	13301
▁weigh	13302
ACT	13303
▁Player	13304
direct	13305
▁argued	13306
出院	13307
asm	13308
试验	13309
▁Hans	13310
Matt	13311
热点	13312
▁rehab	13313
▁shelter	13314
▁Deal	13315
zech	13316
▁promises	13317
western	13318
▁Single	13319
▁Jacob	13320
▁DE	13321
will	13322
城乡	13323
▁Carter	13324
▁skilled	13325
▁inspiring	13326
▁produces	13327
▁fastest	13328
▁settled	13329
ixed	13330
▁engineer	13331
rator	13332
▁iPad	13333
▁beloved	13334
▁CBS	13335
▁Junior	13336
▁drinks	13337
▁Wright	13338
▁proport	13339
XX	13340
▁sew	13341
▁Highway	13342
AST	13343
竟然	13344
rypt	13345
管控	13346
病人	13347
▁haz	13348
auc	13349
▁dozens	13350
▁Native	13351
▁rice	13352
▁legs	13353
▁Ky	13354
▁rarely	13355
财产	13356
develop	13357
▁HR	13358
▁Commerce	13359
Run	13360
▁cannabis	13361
▁sauce	13362
▁Success	13363
给了	13364
▁Pil	13365
▁Joy	13366
▁Aqu	13367
Tim	13368
▁cha	13369
总体	13370
营造	13371
构成	13372
ilation	13373
同步	13374
▁fu	13375
▁throws	13376
product	13377
▁Barcel	13378
▁activists	13379
▁blend	13380
rapeut	13381
▁Body	13382
类的	13383
▁Practice	13384
aha	13385
Phil	13386
▁Disease	13387
东方	13388
▁Strateg	13389
▁proposals	13390
ере	13391
({	13392
▁weird	13393
解读	13394
▁Gre	13395
Join	13396
贸易	13397
▁showc	13398
▁insert	13399
encer	13400
尽管	13401
ropolitan	13402
上升	13403
▁aest	13404
成交	13405
▁Sin	13406
▁frequent	13407
▁CNN	13408
彼此	13409
▁sear	13410
▁Captain	13411
Size	13412
军人	13413
▁visitor	13414
▁moral	13415
pi	13416
我也	13417
▁Craig	13418
Vol	13419
指挥部	13420
FR	13421
~~	13422
不限	13423
▁Manufact	13424
emen	13425
▁buck	13426
▁acclaim	13427
▁Dublin	13428
▁si	13429
click	13430
▁nominated	13431
信心	13432
当年	13433
知识点	13434
看见	13435
========	13436
不错的	13437
作出	13438
NAS	13439
▁Rat	13440
同意	13441
的那	13442
含量	13443
▁Magn	13444
▁Based	13445
Those	13446
韩国	13447
▁divers	13448
▁bio	13449
真的是	13450
▁EST	13451
珍惜	13452
▁Bachelor	13453
主管	13454
Met	13455
▁gorgeous	13456
疼痛	13457
师生	13458
IB	13459
▁racial	13460
rary	13461
bott	13462
▁edited	13463
▁uncom	13464
▁Jen	13465
stock	13466
sis	13467
ventions	13468
▁Glass	13469
▁Artist	13470
HD	13471
▁Bear	13472
感染者	13473
roduct	13474
爱好	13475
▁Inn	13476
atile	13477
▁exhaust	13478
▁emphasis	13479
▁pup	13480
▁enemy	13481
▁Metro	13482
elli	13483
▁enhanced	13484
September	13485
United	13486
解析	13487
▁pregnant	13488
▁fleet	13489
▁gre	13490
思路	13491
Police	13492
秩序	13493
▁font	13494
▁Abd	13495
心态	13496
pled	13497
接下来	13498
giving	13499
担任	13500
▁pregnancy	13501
怎么样	13502
德国	13503
elry	13504
charge	13505
走进	13506
elligent	13507
▁reception	13508
▁checking	13509
回应	13510
▁virtually	13511
▁aver	13512
▁painted	13513
▁Meeting	13514
欧洲	13515
▁Third	13516
人民法院	13517
ois	13518
▁resume	13519
▁prayer	13520
出现了	13521
▁execution	13522
▁nursing	13523
▁circuit	13524
知名	13525
mad	13526
▁seam	13527
▁Deep	13528
andra	13529
▁circle	13530
▁Ju	13531
Profess	13532
Ur	13533
▁finishing	13534
><	13535
▁Ice	13536
City	13537
▁pin	13538
about	13539
门口	13540
▁Impro	13541
▁Housing	13542
▁repeat	13543
▁churches	13544
ndrome	13545
部位	13546
第一个	13547
▁het	13548
身材	13549
▁Restaur	13550
ás	13551
▁posting	13552
两种	13553
贵的	13554
▁maxim	13555
block	13556
居家	13557
▁ski	13558
ingle	13559
▁waves	13560
▁Madrid	13561
pdf	13562
▁Coach	13563
岁月	13564
via	13565
▁charging	13566
▁exclud	13567
防治	13568
▁restore	13569
▁Him	13570
▁accuracy	13571
▁Contract	13572
▁Hawaii	13573
▁Comb	13574
▁wooden	13575
▁Ident	13576
effect	13577
acles	13578
arma	13579
▁Boys	13580
▁Stewart	13581
▁Stre	13582
不敢	13583
▁captain	13584
▁powered	13585
▁fake	13586
prot	13587
浪费	13588
▁advocate	13589
▁Better	13590
Brit	13591
▁somehow	13592
▁smoke	13593
中国的	13594
睡觉	13595
allel	13596
\\	13597
live	13598
▁Fashion	13599
▁Princip	13600
▁Da	13601
ailing	13602
▁Fab	13603
▁Amy	13604
▁puzz	13605
Did	13606
玻璃	13607
▁Prop	13608
▁dental	13609
current	13610
▁emerged	13611
Person	13612
辖区	13613
▁sequence	13614
同比	13615
利润	13616
▁Coal	13617
让孩子	13618
认可	13619
▁casino	13620
irmingham	13621
▁Hub	13622
▁cater	13623
liver	13624
Del	13625
▁Mas	13626
▁alike	13627
alg	13628
▁rolling	13629
▁mistakes	13630
▁formula	13631
▁flavor	13632
Controller	13633
防范	13634
▁shed	13635
▁Citiz	13636
ту	13637
▁Charlotte	13638
央视	13639
▁Springs	13640
他说	13641
管理局	13642
▁Barcelona	13643
的人员	13644
esters	13645
▁Cos	13646
官网	13647
表演	13648
сти	13649
TON	13650
TD	13651
ASE	13652
▁Speed	13653
留学	13654
Air	13655
报警	13656
grounds	13657
espread	13658
▁toile	13659
orious	13660
广东省	13661
脱贫攻坚	13662
▁absence	13663
▁Kitchen	13664
github	13665
▁Cand	13666
观看	13667
▁artwork	13668
▁Pick	13669
▁Morning	13670
▁Row	13671
▁Companies	13672
ceptions	13673
▁ordinary	13674
性和	13675
解放	13676
▁Wayne	13677
医师	13678
▁mortgage	13679
▁Lux	13680
▁venues	13681
▁astron	13682
SH	13683
▁hearts	13684
▁colleges	13685
abe	13686
▁servers	13687
地理	13688
▁Od	13689
▁Think	13690
erd	13691
▁welcomed	13692
Mart	13693
积累	13694
health	13695
▁Much	13696
LY	13697
▁medal	13698
senal	13699
手续	13700
▁为什么	13701
▁Warren	13702
▁Near	13703
▁scenario	13704
职务	13705
好友	13706
行驶	13707
char	13708
itement	13709
▁retailers	13710
纪委	13711
抗疫	13712
▁arguments	13713
▁tower	13714
失去	13715
Sam	13716
rot	13717
▁nic	13718
▁telephone	13719
SD	13720
Enter	13721
丈夫	13722
长时间	13723
发出	13724
▁brut	13725
avas	13726
联盟	13727
▁spoken	13728
ento	13729
▁drag	13730
▁fought	13731
ethe	13732
到达	13733
众多	13734
▁Advanced	13735
笔记	13736
▁conj	13737
▁lens	13738
▁Job	13739
▁cultures	13740
发送	13741
▁applies	13742
Rob	13743
▁exhibit	13744
▁Agreement	13745
▁disorder	13746
мо	13747
inction	13748
▁een	13749
▁stops	13750
▁pink	13751
▁Say	13752
anches	13753
▁trusted	13754
Query	13755
uru	13756
葡萄	13757
rams	13758
Client	13759
▁Orchestra	13760
▁ML	13761
atoes	13762
▁testim	13763
▁para	13764
dl	13765
ieve	13766
Table	13767
lando	13768
IDS	13769
▁suspended	13770
▁corpor	13771
▁__	13772
stop	13773
▁spectrum	13774
▁Kit	13775
▁AG	13776
▁attorneys	13777
来看看	13778
▁Dakota	13779
▁stadium	13780
founder	13781
转发	13782
▁vibrant	13783
站在	13784
gie	13785
尽快	13786
仅供	13787
辽宁	13788
limited	13789
cos	13790
▁Campus	13791
▁liability	13792
▁Activ	13793
airy	13794
▁Directors	13795
▁humanity	13796
cz	13797
分布	13798
▁premiere	13799
▁Tam	13800
▁про	13801
山区	13802
▁versus	13803
保健	13804
Leg	13805
det	13806
振兴	13807
▁CT	13808
▁Screen	13809
起了	13810
日下午	13811
array	13812
▁Give	13813
▁checked	13814
兄弟	13815
放入	13816
▁swing	13817
▁Aw	13818
omed	13819
成为了	13820
▁showcase	13821
身体健康	13822
▁inch	13823
▁yard	13824
Music	13825
issance	13826
▁od	13827
▁literary	13828
魅力	13829
路段	13830
精选	13831
低于	13832
履行	13833
▁preserve	13834
▁advised	13835
涉嫌	13836
▁enjoys	13837
▁startup	13838
世界上	13839
lims	13840
▁Robinson	13841
▁Commons	13842
▁ratings	13843
▁blow	13844
▁Tag	13845
▁divorce	13846
早安	13847
▁url	13848
▁sits	13849
onies	13850
▁bone	13851
SL	13852
rowing	13853
▁Sean	13854
▁calm	13855
acco	13856
▁owns	13857
▁Falls	13858
pes	13859
人力资源	13860
▁mayor	13861
▁stem	13862
台湾	13863
ocur	13864
google	13865
停止	13866
▁Chelsea	13867
shot	13868
DO	13869
▁secured	13870
▁А	13871
▁Lisa	13872
外的	13873
▁sup	13874
一是	13875
电动	13876
▁Perhaps	13877
▁admission	13878
utt	13879
基于	13880
▁rejected	13881
uri	13882
orized	13883
▁musician	13884
uilt	13885
story	13886
select	13887
jamin	13888
校长	13889
ilitation	13890
lett	13891
▁lawmakers	13892
ospel	13893
DE	13894
▁profits	13895
▁filing	13896
▁Colomb	13897
isingly	13898
Group	13899
▁abilities	13900
品种	13901
▁publish	13902
▁followers	13903
▁PL	13904
园区	13905
▁gentle	13906
mits	13907
表情	13908
ften	13909
▁unlike	13910
▁immune	13911
男性	13912
▁Arthur	13913
▁hockey	13914
aughters	13915
▁Join	13916
▁classical	13917
的要求	13918
android	13919
fish	13920
hedral	13921
▁Blues	13922
▁deserve	13923
用来	13924
上课	13925
▁std	13926
▁manip	13927
▁tourists	13928
▁BE	13929
▁survived	13930
休闲	13931
USA	13932
遵守	13933
▁cow	13934
▁Murray	13935
▁fru	13936
usalem	13937
▁Hit	13938
▁landing	13939
让自己	13940
▁Meet	13941
落地	13942
▁defence	13943
甘肃	13944
▁cute	13945
▁Dest	13946
▁assists	13947
Line	13948
维持	13949
ennial	13950
▁radical	13951
herent	13952
▁Krist	13953
Access	13954
rous	13955
▁Fine	13956
▁Server	13957
还没有	13958
▁suite	13959
ASH	13960
让他	13961
▁lobby	13962
危害	13963
▁competing	13964
▁Pel	13965
▁examine	13966
▁Strategy	13967
的就是	13968
▁walks	13969
▁Nevada	13970
▁innoc	13971
▁EC	13972
▁Luke	13973
为何	13974
上线	13975
▁possess	13976
强烈	13977
writing	13978
William	13979
调节	13980
ogg	13981
Fin	13982
▁Track	13983
outube	13984
▁courage	13985
▁Baker	13986
▁Franklin	13987
elve	13988
不开	13989
▁jurisd	13990
刑事	13991
Ev	13992
党组	13993
Lab	13994
缴纳	13995
都很	13996
▁exempt	13997
▁FDA	13998
考点	13999
辅助	14000
eremy	14001
度的	14002
▁notable	14003
▁contents	14004
实用	14005
ski	14006
fi	14007
▁Jobs	14008
▁clicking	14009
视觉	14010
Wed	14011
vity	14012
json	14013
esides	14014
▁Hunter	14015
▁invite	14016
▁fib	14017
胜利	14018
▁Cell	14019
kind	14020
▁packaging	14021
San	14022
男女	14023
▁wondering	14024
abad	14025
▁tourist	14026
年代	14027
策划	14028
▁Manhattan	14029
订阅	14030
▁reserve	14031
充电	14032
▁Treas	14033
Jack	14034
▁embed	14035
▁Morris	14036
爱你	14037
Austral	14038
▁frequency	14039
▁municipal	14040
itative	14041
▁Would	14042
Getty	14043
stage	14044
ATED	14045
▁Create	14046
版权归原作者所有	14047
project	14048
▁王	14049
▁Fal	14050
▁Stream	14051
▁NHS	14052
肿瘤	14053
▁Fed	14054
一段	14055
到位	14056
Arch	14057
ikh	14058
是对	14059
▁Turkish	14060
▁rhyth	14061
▁Version	14062
▁backed	14063
Expl	14064
▁unpre	14065
сто	14066
Phot	14067
▁heating	14068
ulu	14069
Location	14070
▁abund	14071
chnology	14072
▁principle	14073
高等	14074
iga	14075
▁simultane	14076
pin	14077
▁до	14078
基本上	14079
Property	14080
▁Cab	14081
Max	14082
▁Clean	14083
was	14084
▁Barbara	14085
▁disturb	14086
ivic	14087
基因	14088
pot	14089
▁gam	14090
▁booking	14091
▁argue	14092
▁slot	14093
olutionary	14094
▁plain	14095
lon	14096
中小学	14097
▁padd	14098
▁arbit	14099
▁convey	14100
Create	14101
代理	14102
策略	14103
▁impressed	14104
命运	14105
▁FREE	14106
inburgh	14107
▁Opera	14108
▁Mitchell	14109
登录	14110
▁Writing	14111
ppers	14112
▁prosec	14113
▁moist	14114
Que	14115
构建	14116
ntil	14117
alia	14118
▁launching	14119
▁Magic	14120
mother	14121
▁summary	14122
编制	14123
的主要	14124
▁powder	14125
▁Available	14126
doi	14127
的内容	14128
▁Universal	14129
Bet	14130
可以在	14131
板块	14132
rik	14133
▁Diamond	14134
▁disabled	14135
▁Happy	14136
amic	14137
接到	14138
▁merely	14139
Long	14140
yers	14141
én	14142
不得不	14143
▁Pictures	14144
Categories	14145
▁Save	14146
Sch	14147
▁Pow	14148
素材	14149
▁Hamp	14150
ét	14151
▁cited	14152
▁exch	14153
热爱	14154
违反	14155
pectives	14156
▁mixture	14157
VC	14158
▁node	14159
ettings	14160
▁NCAA	14161
车的	14162
####	14163
▁Alaska	14164
逐步	14165
System	14166
了很多	14167
▁hopefully	14168
▁enabling	14169
plant	14170
▁tissue	14171
▁cruise	14172
▁donated	14173
害怕	14174
董事	14175
null	14176
▁Kenya	14177
▁Ideas	14178
othy	14179
▁Ale	14180
▁dump	14181
IX	14182
▁explores	14183
itter	14184
Action	14185
▁achieving	14186
esperson	14187
▁Pas	14188
▁pipeline	14189
▁Cinem	14190
▁reverse	14191
iances	14192
省级	14193
▁Cultural	14194
和谐	14195
一级	14196
▁AN	14197
大赛	14198
温柔	14199
▁Ger	14200
▁Cart	14201
▁vaccines	14202
▁Laura	14203
ropri	14204
▁joins	14205
there	14206
缺乏	14207
后期	14208
节日	14209
展开	14210
简历	14211
也不是	14212
周期	14213
▁invested	14214
▁Insp	14215
转移	14216
▁Collins	14217
▁Gill	14218
决策	14219
小伙伴	14220
▁citizen	14221
▁fert	14222
gate	14223
引领	14224
的通知	14225
▁Brun	14226
▁terrible	14227
背后	14228
▁TX	14229
chi	14230
步骤	14231
的故事	14232
▁cabinet	14233
▁Ian	14234
▁seg	14235
顾客	14236
Micro	14237
summary	14238
▁Poll	14239
▁不	14240
▁Soul	14241
ет	14242
▁IL	14243
▁EDT	14244
icts	14245
▁launches	14246
的学习	14247
▁Bart	14248
▁analytics	14249
▁wur	14250
▁evaluate	14251
分手	14252
▁entries	14253
▁peer	14254
▁sponsored	14255
▁counts	14256
▁inflation	14257
▁als	14258
▁composed	14259
一句	14260
asty	14261
ivan	14262
▁Guy	14263
cedented	14264
开通	14265
Jul	14266
▁alumni	14267
PH	14268
▁Cut	14269
owski	14270
▁elegant	14271
arity	14272
▁genuine	14273
▁Welcome	14274
▁carries	14275
liest	14276
描述	14277
▁Soviet	14278
错过	14279
▁welfare	14280
▁equality	14281
wealth	14282
听到	14283
▁serial	14284
乘坐	14285
用品	14286
的学生	14287
ния	14288
▁hur	14289
cycle	14290
的水	14291
欣赏	14292
ixel	14293
▁Hend	14294
▁Ru	14295
▁Kam	14296
修复	14297
▁worship	14298
▁editing	14299
▁NYC	14300
▁Parker	14301
修改	14302
▁dict	14303
▁femin	14304
▁SW	14305
▁Lif	14306
用地	14307
黑色	14308
▁wage	14309
携带	14310
账号	14311
你就	14312
简单的	14313
▁Masters	14314
▁neutral	14315
▁Document	14316
▁eliminate	14317
▁carpet	14318
oween	14319
ocate	14320
我不	14321
▁Mall	14322
▁Circuit	14323
▁Abu	14324
bird	14325
▁Cover	14326
▁Mos	14327
udson	14328
▁Dal	14329
高端	14330
Does	14331
▁indoor	14332
ici	14333
iplinary	14334
相处	14335
▁Ku	14336
▁congress	14337
▁unt	14338
上去	14339
工厂	14340
▁wash	14341
пи	14342
无症状	14343
▁edit	14344
对应	14345
▁bol	14346
▁Emergency	14347
▁Corps	14348
▁robot	14349
▁Campbell	14350
▁SA	14351
umbai	14352
private	14353
conf	14354
我说	14355
▁intrig	14356
▁Susan	14357
▁funeral	14358
▁promising	14359
pur	14360
▁unw	14361
▁anch	14362
▁odds	14363
服务中心	14364
Updated	14365
▁Math	14366
▁Remember	14367
▁Nep	14368
设立	14369
▁Aaron	14370
exp	14371
hero	14372
▁YOU	14373
▁är	14374
India	14375
isting	14376
授权	14377
▁acquire	14378
头发	14379
忘记	14380
oned	14381
▁golden	14382
▁Original	14383
▁Ze	14384
oren	14385
▁toxic	14386
Care	14387
现有	14388
昨天	14389
是指	14390
idal	14391
▁Sel	14392
▁MO	14393
▁guns	14394
▁ро	14395
▁diabetes	14396
▁situated	14397
oded	14398
简直	14399
▁hanging	14400
▁dispute	14401
为准	14402
▁Rot	14403
uer	14404
权利	14405
很大的	14406
▁urged	14407
▁dishes	14408
玉米	14409
ounding	14410
校区	14411
姓名	14412
很少	14413
▁sanctions	14414
▁Mail	14415
辛苦	14416
▁Corporate	14417
▁ist	14418
▁abstract	14419
▁Lie	14420
▁indicates	14421
加速	14422
▁Б	14423
▁HP	14424
school	14425
▁memorable	14426
气象	14427
▁tar	14428
▁Cabin	14429
▁cinema	14430
▁Everyone	14431
咖啡	14432
▁dil	14433
bling	14434
Support	14435
▁Ted	14436
▁Includ	14437
金属	14438
ан	14439
rative	14440
▁steal	14441
不动	14442
ду	14443
▁tub	14444
封闭	14445
▁USB	14446
▁HTML	14447
});	14448
Live	14449
▁VP	14450
不见	14451
tons	14452
Which	14453
洗手	14454
▁Wol	14455
或是	14456
▁enormous	14457
▁lung	14458
其次	14459
▁SEC	14460
▁thrown	14461
宿舍	14462
▁Murphy	14463
▁terrorist	14464
▁Chen	14465
inery	14466
▁Lang	14467
brities	14468
img	14469
所得	14470
▁Fem	14471
▁outbreak	14472
仔细	14473
▁quotes	14474
▁ceiling	14475
▁Bright	14476
▁dancing	14477
Only	14478
Europe	14479
▁broader	14480
Full	14481
装饰	14482
▁custody	14483
美好的	14484
avan	14485
▁patent	14486
▁BMW	14487
▁surely	14488
▁sons	14489
▁hes	14490
▁Iranian	14491
反馈	14492
})	14493
hill	14494
疾控	14495
▁neighbour	14496
ampa	14497
回忆	14498
▁Airl	14499
公安机关	14500
heart	14501
▁accomp	14502
▁claiming	14503
歌曲	14504
来源于网络	14505
izont	14506
"]	14507
▁vintage	14508
▁offerings	14509
颜值	14510
mart	14511
Chris	14512
发行	14513
▁Had	14514
rates	14515
▁landmark	14516
医护	14517
疑似	14518
February	14519
rage	14520
commun	14521
▁unp	14522
路口	14523
北京市	14524
▁cultiv	14525
▁critics	14526
ei	14527
interest	14528
模拟	14529
纪律	14530
▁Nord	14531
esis	14532
isure	14533
Law	14534
▁Marshall	14535
NEW	14536
▁comed	14537
▁ambit	14538
▁Perry	14539
应该是	14540
▁hunting	14541
周岁	14542
▁diagnosed	14543
Global	14544
▁judgment	14545
▁folder	14546
▁qualify	14547
AK	14548
drop	14549
▁makers	14550
色彩	14551
学期	14552
School	14553
▁airline	14554
吉林	14555
▁alumin	14556
▁Nintendo	14557
tha	14558
Project	14559
▁Want	14560
▁Nut	14561
▁milit	14562
nor	14563
给自己	14564
ogan	14565
通风	14566
ITH	14567
gal	14568
▁deter	14569
▁Shan	14570
VER	14571
▁Evans	14572
ARD	14573
我要	14574
近年来	14575
▁failing	14576
▁seemingly	14577
alties	14578
▁fallen	14579
sch	14580
安全生产	14581
cribed	14582
emor	14583
▁singles	14584
▁om	14585
▁fut	14586
▁mad	14587
▁Wire	14588
Base	14589
Women	14590
打卡	14591
周末	14592
▁burden	14593
▁gains	14594
▁Technical	14595
▁Crown	14596
▁tired	14597
▁Exhib	14598
麻烦	14599
ollar	14600
client	14601
的机会	14602
许可	14603
bie	14604
▁ho	14605
▁Command	14606
▁clip	14607
▁张	14608
一片	14609
▁condem	14610
▁Grace	14611
▁VA	14612
▁Nurs	14613
▁shoulder	14614
看待	14615
step	14616
的行为	14617
▁Making	14618
▁hyper	14619
mir	14620
Filed	14621
▁lady	14622
▁BO	14623
Green	14624
证据	14625
tail	14626
▁trucks	14627
ieval	14628
清理	14629
uploads	14630
ар	14631
▁Bishop	14632
ancell	14633
▁bless	14634
▁Lot	14635
保存	14636
红包	14637
▁fits	14638
elebrities	14639
▁damages	14640
▁seeds	14641
▁Brothers	14642
一件	14643
theless	14644
推送	14645
年轻人	14646
画面	14647
▁Linux	14648
▁spo	14649
被告	14650
inf	14651
▁recall	14652
路线	14653
部长	14654
Facebook	14655
▁Kr	14656
真题	14657
退役	14658
▁expects	14659
Robert	14660
ente	14661
▁Partner	14662
▁refers	14663
▁Voice	14664
▁Jimmy	14665
▁retain	14666
oples	14667
高速公路	14668
entry	14669
▁matching	14670
▁Nashville	14671
龙江	14672
▁Douglas	14673
▁holes	14674
▁colours	14675
▁eager	14676
▁harvest	14677
后续	14678
外国	14679
▁Jerusalem	14680
▁Warner	14681
▁Wonder	14682
Second	14683
▁deadly	14684
▁liberal	14685
ORD	14686
▁wing	14687
▁lon	14688
▁Swiss	14689
unct	14690
▁mic	14691
▁novels	14692
使得	14693
▁decrease	14694
omes	14695
▁gross	14696
花园	14697
ju	14698
fits	14699
illo	14700
▁striking	14701
焦虑	14702
▁Roger	14703
▁Yan	14704
▁mild	14705
▁dans	14706
▁overt	14707
▁reun	14708
白色	14709
▁Myst	14710
▁affects	14711
▁sour	14712
ucker	14713
要注意	14714
▁AB	14715
lington	14716
▁Ward	14717
arest	14718
heimer	14719
PT	14720
tml	14721
大师	14722
▁filling	14723
▁um	14724
车站	14725
头像	14726
▁Anti	14727
▁desert	14728
在我	14729
▁Racing	14730
Sw	14731
聪明	14732
▁Lag	14733
▁sust	14734
vement	14735
borough	14736
▁Lock	14737
Media	14738
▁grace	14739
▁Cher	14740
▁generous	14741
ository	14742
▁ranking	14743
是非常	14744
rt	14745
▁Stev	14746
ked	14747
▁lineup	14748
▁vocals	14749
▁investor	14750
riors	14751
必然	14752
▁Cass	14753
二是	14754
电视台	14755
istered	14756
▁layers	14757
▁我们	14758
acent	14759
▁toll	14760
▁Ele	14761
▁delete	14762
▁DI	14763
聚焦	14764
ername	14765
▁Syrian	14766
究竟	14767
保留	14768
便利	14769
▁Hell	14770
▁lease	14771
对待	14772
▁prospect	14773
opter	14774
gow	14775
党建	14776
▁tune	14777
▁hal	14778
ladesh	14779
口腔	14780
ambling	14781
▁obl	14782
世间	14783
▁Fern	14784
ORK	14785
▁ware	14786
Cam	14787
▁measured	14788
▁Altern	14789
itate	14790
目录	14791
▁Benef	14792
Ins	14793
▁orange	14794
的孩子	14795
Visit	14796
▁Podcast	14797
▁fears	14798
▁Esc	14799
号线	14800
▁Rio	14801
▁chest	14802
▁Arena	14803
法定	14804
▁universal	14805
而已	14806
▁inclusive	14807
山市	14808
owners	14809
ischen	14810
▁inhab	14811
▁Kind	14812
▁Trad	14813
荣誉	14814
▁minority	14815
▁lasting	14816
mind	14817
uction	14818
新冠肺炎疫情	14819
▁inev	14820
LD	14821
和你	14822
工程师	14823
破坏	14824
范围内	14825
▁earning	14826
即便	14827
常常	14828
▁satisfied	14829
模型	14830
▁pocket	14831
▁nerv	14832
吃的	14833
media	14834
▁Official	14835
▁disput	14836
新型冠状病毒感染	14837
▁disag	14838
收集	14839
指定	14840
▁Advisory	14841
hl	14842
Ann	14843
▁李	14844
▁Vision	14845
itime	14846
▁Kir	14847
raham	14848
常态	14849
▁Leave	14850
document	14851
ARS	14852
▁duo	14853
proof	14854
ounces	14855
定制	14856
▁devoted	14857
▁blame	14858
如果是	14859
▁traged	14860
▁folk	14861
之下	14862
leading	14863
Whether	14864
人民群众	14865
fly	14866
▁Due	14867
anim	14868
Having	14869
quer	14870
boards	14871
cap	14872
▁summit	14873
▁inval	14874
▁Tob	14875
uda	14876
rust	14877
▁Programs	14878
▁struggles	14879
▁Clinical	14880
▁advocacy	14881
▁Cold	14882
满满	14883
工人	14884
isp	14885
iiii	14886
▁Election	14887
▁recipient	14888
爱心	14889
▁somebody	14890
祖国	14891
Node	14892
udge	14893
▁Amendment	14894
History	14895
精品	14896
产权	14897
▁peaceful	14898
▁royal	14899
▁NJ	14900
▁laptop	14901
▁lockdown	14902
thlete	14903
▁consolid	14904
Sl	14905
▁Costa	14906
▁Ga	14907
▁bin	14908
不懂	14909
▁>>	14910
▁Ferr	14911
入学	14912
▁Fellow	14913
blog	14914
▁Clear	14915
▁sorry	14916
▁hill	14917
基本内容	14918
▁Parks	14919
▁foss	14920
▁autonom	14921
餐厅	14922
▁scan	14923
xygen	14924
减肥	14925
Though	14926
▁labour	14927
▁ambitious	14928
inates	14929
房间	14930
▁horses	14931
iw	14932
Main	14933
预测	14934
有趣	14935
▁stolen	14936
▁incidents	14937
▁Madison	14938
求职	14939
▁deputy	14940
▁migration	14941
▁tape	14942
▁multip	14943
违法行为	14944
▁Between	14945
▁Peters	14946
istical	14947
▁stain	14948
▁ALL	14949
普遍	14950
气的	14951
▁reads	14952
Sur	14953
认知	14954
quarter	14955
▁MC	14956
▁couples	14957
不停	14958
▁Looking	14959
fred	14960
▁requiring	14961
地的	14962
▁refund	14963
▁letting	14964
▁Pra	14965
▁bacteria	14966
这个问题	14967
▁fatal	14968
▁Consider	14969
ingers	14970
▁inventory	14971
▁recipes	14972
▁Got	14973
▁laser	14974
sized	14975
▁Bou	14976
cycl	14977
incial	14978
▁foster	14979
强大	14980
▁announces	14981
▁dispos	14982
每月	14983
▁epid	14984
人心	14985
共有	14986
▁loaded	14987
爆发	14988
三大	14989
▁Storm	14990
QU	14991
acre	14992
▁trains	14993
чи	14994
▁Princess	14995
ounge	14996
▁tempor	14997
▁overview	14998
团结	14999
年底	15000
▁Sever	15001
result	15002
▁的	15003
isch	15004
▁Results	15005
ACE	15006
onz	15007
ridge	15008
▁Norway	15009
ln	15010
Pass	15011
▁convicted	15012
飞机	15013
”:	15014
▁hadn	15015
▁publisher	15016
▁burning	15017
DAY	15018
审批	15019
专科	15020
签订	15021
iox	15022
▁oral	15023
▁Verm	15024
▁Fish	15025
▁wrest	15026
хо	15027
idget	15028
▁Pap	15029
▁Occ	15030
大力	15031
▁Metal	15032
都没	15033
▁nomine	15034
博物	15035
维修	15036
▁entities	15037
▁Career	15038
whe	15039
Result	15040
▁bub	15041
▁navigate	15042
为大家	15043
forward	15044
WE	15045
etics	15046
Nav	15047
▁dent	15048
visor	15049
▁activist	15050
军事	15051
▁comply	15052
III	15053
Number	15054
good	15055
条例	15056
QQ	15057
driven	15058
▁hug	15059
▁abandoned	15060
▁counties	15061
entials	15062
speed	15063
现金	15064
nia	15065
▁demanding	15066
买房	15067
▁barriers	15068
电梯	15069
blem	15070
event	15071
▁fulfill	15072
▁Photos	15073
Mac	15074
▁cogn	15075
dist	15076
ographical	15077
过于	15078
迎来	15079
Offic	15080
Dist	15081
References	15082
说法	15083
密切接触	15084
▁Knight	15085
▁brew	15086
房价	15087
doors	15088
▁Interest	15089
▁Bos	15090
▁Lanka	15091
▁Fel	15092
▁Rachel	15093
▁Inside	15094
▁Rank	15095
点的	15096
差异	15097
▁Historic	15098
▁rib	15099
▁Czech	15100
▁ensures	15101
▁Linked	15102
▁elite	15103
ournals	15104
▁FROM	15105
support	15106
▁Н	15107
灵活	15108
▁Bapt	15109
FM	15110
▁Marie	15111
▁Beng	15112
Pop	15113
▁floors	15114
ascular	15115
长沙	15116
突发	15117
omas	15118
专注	15119
领导小组	15120
▁ske	15121
▁Train	15122
package	15123
▁mirror	15124
▁preview	15125
▁islands	15126
▁Airlines	15127
解除	15128
部队	15129
default	15130
▁wishes	15131
cies	15132
/*	15133
▁poster	15134
的设计	15135
山东省	15136
write	15137
▁embrace	15138
季节	15139
消失	15140
▁dose	15141
▁vendors	15142
▁rated	15143
▁handful	15144
▁GOP	15145
Lay	15146
▁Stop	15147
是你	15148
Looking	15149
▁Ground	15150
▁Later	15151
”(	15152
屏幕	15153
avascript	15154
ammed	15155
▁picking	15156
▁für	15157
▁drove	15158
▁Suite	15159
▁ф	15160
以上的	15161
▁removing	15162
▁Pul	15163
遇见	15164
拿到	15165
▁timely	15166
▁compact	15167
▁borders	15168
▁aer	15169
emon	15170
教育局	15171
对外	15172
一批	15173
heet	15174
▁complim	15175
既然	15176
▁Fight	15177
egu	15178
▁Toyota	15179
Non	15180
代谢	15181
▁Deb	15182
▁nutrition	15183
网红	15184
▁rounds	15185
"/>	15186
aho	15187
option	15188
▁Valent	15189
asted	15190
igma	15191
Cle	15192
▁Gray	15193
▁Double	15194
▁chemicals	15195
▁Picture	15196
▁Progress	15197
翻译	15198
▁Pope	15199
▁Puerto	15200
▁clinic	15201
bsp	15202
ateway	15203
这也是	15204
rine	15205
▁resign	15206
不然	15207
thy	15208
地块	15209
what	15210
▁Tig	15211
▁Edinburgh	15212
▁Orlando	15213
深化	15214
英文	15215
▁Luther	15216
BER	15217
▁compan	15218
second	15219
etta	15220
▁Animal	15221
▁answered	15222
Finally	15223
▁beliefs	15224
ahl	15225
Script	15226
没想到	15227
十三	15228
enezuel	15229
▁Leban	15230
▁LP	15231
▁Arkansas	15232
][	15233
enson	15234
▁babies	15235
表明	15236
监控	15237
氧化	15238
▁Issue	15239
填报	15240
WA	15241
▁ma	15242
队员	15243
▁EN	15244
▁Enjoy	15245
▁Belgium	15246
▁expecting	15247
工商	15248
imens	15249
▁handed	15250
Show	15251
▁physician	15252
▁GT	15253
前期	15254
▁со	15255
▁overnight	15256
▁starring	15257
▁Ts	15258
▁countless	15259
nan	15260
▁gardens	15261
immer	15262
▁beaches	15263
aton	15264
心脏	15265
▁banned	15266
▁seventh	15267
▁stir	15268
▁coalition	15269
vet	15270
▁thrilled	15271
esty	15272
rin	15273
▁RO	15274
fare	15275
cient	15276
walk	15277
▁Inv	15278
duced	15279
▁draws	15280
互相	15281
▁animation	15282
▁Delta	15283
▁humor	15284
▁lat	15285
","	15286
转化	15287
▁cher	15288
▁disorders	15289
▁maj	15290
cery	15291
▁Griff	15292
idges	15293
asses	15294
▁amen	15295
我们要	15296
▁Muslims	15297
西北	15298
▁Latest	15299
▁targeting	15300
GC	15301
▁Programme	15302
arding	15303
▁momentum	15304
接近	15305
中文	15306
▁Along	15307
▁Clar	15308
办事	15309
补助	15310
orient	15311
等方面	15312
▁explicit	15313
▁Р	15314
▁Michelle	15315
▁deposit	15316
DB	15317
▁Beyond	15318
▁pron	15319
▁variant	15320
小程序	15321
学生的	15322
render	15323
▁auf	15324
ouble	15325
▁editorial	15326
▁posit	15327
Tem	15328
imedia	15329
▁Wa	15330
▁Kap	15331
▁fiber	15332
′′	15333
▁bron	15334
IGHT	15335
▁trademark	15336
zel	15337
联系方式	15338
和社会	15339
▁coastal	15340
ceive	15341
▁Greater	15342
▁Value	15343
▁Tickets	15344
地球	15345
▁Ay	15346
▁carrier	15347
车主	15348
▁Stage	15349
▁composer	15350
▁Visual	15351
mg	15352
▁Deg	15353
的主	15354
海外	15355
两个人	15356
role	15357
▁designing	15358
Using	15359
什么是	15360
ostic	15361
▁Virtual	15362
▁Pred	15363
▁Emily	15364
▁Gay	15365
民生	15366
frame	15367
ught	15368
工作中	15369
▁accum	15370
▁Weekly	15371
▁Fig	15372
从小	15373
▁longest	15374
▁„	15375
▁Course	15376
white	15377
▁vertical	15378
▁din	15379
记住	15380
▁Pain	15381
▁sne	15382
ibli	15383
季度	15384
▁ende	15385
▁Dragon	15386
▁Forces	15387
EU	15388
Oper	15389
信任	15390
法国	15391
感恩	15392
长大	15393
▁None	15394
Sk	15395
▁crusher	15396
center	15397
护士	15398
▁buried	15399
▁promoted	15400
纳入	15401
strong	15402
CAR	15403
▁perpet	15404
call	15405
▁deliber	15406
▁barely	15407
ateur	15408
▁Former	15409
▁departure	15410
▁las	15411
▁Phone	15412
走向	15413
azines	15414
Welcome	15415
▁Moreover	15416
▁Holiday	15417
valid	15418
▁inequ	15419
▁Philip	15420
▁<<	15421
rons	15422
▁Says	15423
Apple	15424
Custom	15425
▁converted	15426
▁upset	15427
commerce	15428
▁sisters	15429
▁Criminal	15430
▁opponents	15431
采访	15432
无限	15433
▁bull	15434
▁ESP	15435
礼物	15436
▁chairs	15437
rors	15438
▁graduates	15439
▁Nam	15440
▁cricket	15441
▁attacked	15442
inely	15443
股票	15444
▁Cris	15445
▁Tun	15446
扎实	15447
▁Platform	15448
arged	15449
地下	15450
▁belt	15451
话题	15452
▁Lad	15453
▁spir	15454
▁celebrity	15455
help	15456
ruptcy	15457
Right	15458
估计	15459
isons	15460
给他	15461
Power	15462
▁Jah	15463
分泌	15464
ifferent	15465
咳嗽	15466
较大	15467
GM	15468
障碍	15469
最多	15470
▁addiction	15471
新生	15472
▁knee	15473
SM	15474
守护	15475
节奏	15476
▁Kay	15477
Bo	15478
sa	15479
感动	15480
预警	15481
▁convin	15482
▁spray	15483
格局	15484
▁repairs	15485
ommy	15486
负担	15487
▁terminal	15488
▁Democrat	15489
Found	15490
iev	15491
aukee	15492
▁occasions	15493
▁Salt	15494
▁Sug	15495
▁neighbors	15496
▁Writer	15497
▁bug	15498
fact	15499
▁Risk	15500
ensively	15501
看完	15502
全身	15503
▁NHL	15504
▁das	15505
brand	15506
itutes	15507
held	15508
▁aqu	15509
▁desktop	15510
▁grat	15511
Station	15512
▁Sheriff	15513
Address	15514
uez	15515
▁stere	15516
▁Stanley	15517
Old	15518
▁wisdom	15519
ristol	15520
▁nobody	15521
▁tooth	15522
导师	15523
重复	15524
▁Ukrain	15525
▁romance	15526
▁calc	15527
uscript	15528
▁Hem	15529
White	15530
▁drew	15531
▁Currently	15532
那就是	15533
冠军	15534
anthrop	15535
thod	15536
的一些	15537
▁outs	15538
▁се	15539
▁reply	15540
▁inher	15541
▁earthqu	15542
敏感	15543
小孩	15544
Report	15545
▁BR	15546
▁ancest	15547
进展	15548
子里	15549
请联系删除	15550
▁handled	15551
常委	15552
▁storyt	15553
权威	15554
struction	15555
姑娘	15556
走了	15557
十一	15558
eness	15559
omi	15560
▁Tesla	15561
Rad	15562
纤维	15563
▁Ll	15564
▁purchases	15565
▁coat	15566
响应	15567
▁Mercedes	15568
▁violation	15569
坚守	15570
风险地区	15571
achers	15572
院长	15573
▁solely	15574
aments	15575
Research	15576
▁Volume	15577
ATO	15578
三角	15579
释放	15580
▁happiness	15581
annon	15582
▁Stay	15583
}\	15584
的能力	15585
老婆	15586
▁Rules	15587
Year	15588
的美	15589
男朋友	15590
▁Kid	15591
▁chip	15592
局部	15593
▁年	15594
URL	15595
▁Audio	15596
▁parad	15597
▁hardly	15598
▁Rug	15599
▁shame	15600
▁sciences	15601
otherapy	15602
▁PH	15603
测量	15604
▁Veh	15605
▁anth	15606
▁Argentina	15607
▁aggreg	15608
VA	15609
▁hunt	15610
▁Cav	15611
umbers	15612
▁libraries	15613
oeing	15614
▁cookie	15615
▁computing	15616
▁Consumer	15617
▁tut	15618
一人	15619
dat	15620
▁Reports	15621
▁Within	15622
▁wheels	15623
hal	15624
▁supplier	15625
▁Articles	15626
anean	15627
抓住	15628
▁Coord	15629
在中国	15630
▁valued	15631
▁outlets	15632
▁Perfect	15633
▁whereas	15634
出售	15635
▁Honor	15636
▁memorial	15637
▁Meanwhile	15638
康复	15639
▁Stra	15640
党支部	15641
▁Letter	15642
无需	15643
access	15644
▁analysts	15645
▁pret	15646
ATH	15647
ierra	15648
umm	15649
▁Tan	15650
ICK	15651
▁centres	15652
相关的	15653
erie	15654
sur	15655
套餐	15656
店铺	15657
▁stamp	15658
▁Opport	15659
一周	15660
▁nervous	15661
▁Billy	15662
▁animated	15663
▁Reuters	15664
作文	15665
城镇	15666
▁ED	15667
nut	15668
gender	15669
▁intimate	15670
政协	15671
omo	15672
▁snap	15673
▁vib	15674
▁pension	15675
▁mos	15676
国外	15677
善良	15678
ervices	15679
人间	15680
▁Cre	15681
▁mobility	15682
▁Resort	15683
▁chips	15684
ducer	15685
▁Total	15686
▁keyboard	15687
口感	15688
▁charter	15689
▁constra	15690
oft	15691
▁Than	15692
qq	15693
▁Lion	15694
▁curious	15695
depend	15696
gun	15697
▁scientist	15698
же	15699
▁revenues	15700
Sun	15701
元的	15702
一代	15703
piracy	15704
ANT	15705
kers	15706
▁ES	15707
▁gig	15708
zone	15709
keley	15710
糖尿	15711
都市	15712
▁Neuro	15713
▁Unc	15714
▁caps	15715
▁Fiction	15716
fix	15717
芯片	15718
issioned	15719
▁racism	15720
▁Turner	15721
▁Lost	15722
第六	15723
request	15724
idity	15725
▁Wikipedia	15726
CON	15727
此前	15728
”;	15729
▁maker	15730
working	15731
▁Managing	15732
▁loose	15733
ecurity	15734
职场	15735
▁shaped	15736
▁Walter	15737
лі	15738
▁Portugal	15739
▁Weather	15740
西南	15741
▁phrase	15742
▁Ghana	15743
WH	15744
▁fails	15745
▁guided	15746
算是	15747
▁Applic	15748
▁talents	15749
▁profound	15750
▁shapes	15751
▁cheaper	15752
itations	15753
umar	15754
烦恼	15755
▁timing	15756
灵魂	15757
iu	15758
▁temple	15759
▁Cool	15760
号码	15761
////	15762
со	15763
▁Tar	15764
无症状感染者	15765
Director	15766
清洗	15767
▁signals	15768
医药	15769
郑州	15770
奉献	15771
▁Glas	15772
▁barrel	15773
薪资	15774
ieg	15775
ILE	15776
▁Target	15777
ère	15778
igo	15779
通讯	15780
▁Primary	15781
▁detection	15782
plement	15783
isms	15784
ELL	15785
▁charts	15786
▁Easter	15787
▁columns	15788
老年人	15789
▁gri	15790
ahoo	15791
▁march	15792
▁Eagles	15793
rup	15794
esa	15795
▁stepped	15796
朋友们	15797
▁dying	15798
好处	15799
暂停	15800
毫无	15801
▁Palm	15802
▁Beth	15803
roversy	15804
▁scholar	15805
▁visa	15806
每周	15807
单词	15808
▁missions	15809
家中	15810
▁sensor	15811
企业的	15812
Special	15813
途径	15814
▁Quick	15815
两次	15816
▁patch	15817
▁Keith	15818
▁volunt	15819
点个	15820
▁gest	15821
攻击	15822
▁roster	15823
▁Reform	15824
▁lip	15825
▁Todd	15826
▁Halloween	15827
▁›	15828
▁greet	15829
hn	15830
▁swit	15831
height	15832
原本	15833
▁cats	15834
final	15835
izable	15836
▁anger	15837
▁builds	15838
▁affecting	15839
▁Larry	15840
▁Pent	15841
▁smoking	15842
▁respected	15843
▁Lands	15844
▁Getty	15845
sor	15846
活力	15847
并非	15848
icked	15849
Factory	15850
eur	15851
有效的	15852
▁locked	15853
▁sentenced	15854
some	15855
chair	15856
incinn	15857
opes	15858
▁Chron	15859
green	15860
▁breach	15861
附件	15862
▁terrorism	15863
全县	15864
▁settle	15865
eted	15866
在外	15867
Speaking	15868
▁unlock	15869
▁Trend	15870
asting	15871
这类	15872
监察	15873
我们将	15874
题目	15875
月底	15876
▁Montreal	15877
▁Surg	15878
发育	15879
▁renov	15880
True	15881
▁Rand	15882
▁Liberty	15883
▁Hampshire	15884
Mat	15885
▁peers	15886
▁killer	15887
黑龙江	15888
▁Archive	15889
▁parallel	15890
▁Alt	15891
▁Tyler	15892
▁Style	15893
requ	15894
econom	15895
惊喜	15896
than	15897
waukee	15898
起到	15899
▁Left	15900
idad	15901
weg	15902
的效果	15903
服装	15904
▁beds	15905
▁transit	15906
IES	15907
男孩	15908
提供了	15909
▁Rab	15910
▁forgotten	15911
人事	15912
均为	15913
omer	15914
学习教育	15915
▁medic	15916
▁Benn	15917
▁Doc	15918
itudes	15919
厨房	15920
peare	15921
▁Focus	15922
ifice	15923
发动机	15924
▁Mason	15925
AU	15926
▁Benjamin	15927
一大	15928
kar	15929
分配	15930
▁Cash	15931
充足	15932
plug	15933
▁beef	15934
ovic	15935
range	15936
▁executed	15937
▁Cu	15938
▁deployed	15939
▁Resource	15940
sterdam	15941
SN	15942
process	15943
▁defeated	15944
Button	15945
家乡	15946
市公安局	15947
开发区	15948
nik	15949
Cong	15950
实验室	15951
▁Jerry	15952
▁advocates	15953
陆续	15954
▁Drama	15955
zt	15956
cam	15957
▁arranged	15958
agraph	15959
▁duration	15960
▁Happ	15961
▁angle	15962
个性	15963
▁cotton	15964
▁Ring	15965
▁Lit	15966
一套	15967
疫苗接种	15968
▁Neil	15969
▁ignore	15970
▁reflected	15971
▁labels	15972
体内	15973
mental	15974
▁Sad	15975
医学观察	15976
业绩	15977
生意	15978
▁Cameron	15979
▁leaf	15980
▁sorts	15981
incinnati	15982
一只	15983
Load	15984
▁variables	15985
▁economics	15986
那里	15987
agine	15988
军队	15989
▁Mumbai	15990
▁daughters	15991
▁mart	15992
covered	15993
▁precious	15994
▁depos	15995
▁Ton	15996
iterr	15997
之路	15998
acies	15999
▁referring	16000
bet	16001
春天	16002
BU	16003
▁struggled	16004
▁nose	16005
▁ramp	16006
▁Assess	16007
那样	16008
▁combines	16009
▁steady	16010
伟大	16011
东南	16012
▁steam	16013
▁Cruz	16014
si	16015
jar	16016
▁instantly	16017
他在	16018
War	16019
akespeare	16020
▁Players	16021
▁Beck	16022
▁scar	16023
▁Barry	16024
▁magical	16025
▁Dim	16026
▁prosper	16027
开工	16028
▁helic	16029
▁Joint	16030
NET	16031
FI	16032
主播	16033
一直在	16034
▁pays	16035
Fore	16036
▁caring	16037
▁Edge	16038
izontal	16039
▁varied	16040
▁Hudson	16041
▁Sanders	16042
Social	16043
你在	16044
▁evident	16045
▁Ambass	16046
某些	16047
▁trim	16048
Response	16049
向上	16050
▁Vo	16051
Cr	16052
▁Qual	16053
Hi	16054
▁Spect	16055
▁Growth	16056
理工	16057
政法	16058
bus	16059
▁Woods	16060
贯彻落实	16061
▁Buffalo	16062
ación	16063
building	16064
dir	16065
▁heroes	16066
▁accompany	16067
▁Budget	16068
ivo	16069
▁reaches	16070
▁manages	16071
iper	16072
orus	16073
rend	16074
▁shirt	16075
▁mouse	16076
▁Robin	16077
▁Kel	16078
Mal	16079
Contin	16080
▁Choice	16081
umble	16082
▁Bitcoin	16083
▁farming	16084
gence	16085
Method	16086
到来	16087
Bro	16088
罚款	16089
▁Fan	16090
侵犯	16091
▁tension	16092
▁aus	16093
▁permitted	16094
PDF	16095
▁Samuel	16096
▁processed	16097
▁Loc	16098
▁cryptocur	16099
▁teaches	16100
▁vig	16101
为人	16102
条件的	16103
▁pub	16104
电动车	16105
合肥	16106
融媒体	16107
▁Rivers	16108
▁Fantasy	16109
pathy	16110
▁sail	16111
这个时候	16112
随意	16113
▁attracted	16114
摩托	16115
▁Homes	16116
▁guides	16117
ipt	16118
▁bund	16119
有一种	16120
▁Tips	16121
Four	16122
▁Margaret	16123
创意	16124
rah	16125
人员的	16126
па	16127
chen	16128
▁worn	16129
▁Aid	16130
Gold	16131
▁Customer	16132
▁Faith	16133
aman	16134
卫生健康	16135
后果	16136
▁Details	16137
行情	16138
生存	16139
▁Poly	16140
oustic	16141
性质	16142
和平	16143
fold	16144
高达	16145
otation	16146
五年	16147
keys	16148
▁audit	16149
济南	16150
百万	16151
▁Task	16152
精心	16153
拓展	16154
请您	16155
▁fer	16156
Written	16157
▁Merc	16158
▁insect	16159
▁Fro	16160
短信	16161
icht	16162
细菌	16163
hy	16164
▁Match	16165
node	16166
Title	16167
▁chemistry	16168
▁traveled	16169
depth	16170
随便	16171
▁tablet	16172
▁passage	16173
面上	16174
LL	16175
▁Beautiful	16176
慢性	16177
ovo	16178
二级	16179
NE	16180
▁wurde	16181
▁Ug	16182
▁drain	16183
▁mutual	16184
▁Nancy	16185
bas	16186
远离	16187
inyl	16188
IFA	16189
icity	16190
▁Compl	16191
户型	16192
$,	16193
▁第二	16194
▁poet	16195
给孩子	16196
third	16197
▁gran	16198
Miss	16199
▁Ald	16200
▁Neg	16201
户籍	16202
agger	16203
▁angry	16204
▁Comedy	16205
▁Nothing	16206
▁revol	16207
▁concerts	16208
onial	16209
尺寸	16210
带动	16211
转型	16212
精力	16213
▁Maj	16214
▁Pun	16215
▁volumes	16216
▁allies	16217
Aud	16218
Game	16219
▁expense	16220
▁backup	16221
▁Ric	16222
▁SQL	16223
消除	16224
▁Rac	16225
erals	16226
▁Switch	16227
Peter	16228
▁festivals	16229
fficking	16230
space	16231
▁convinced	16232
部的	16233
▁branches	16234
注明	16235
▁camps	16236
▁raises	16237
只会	16238
▁Jessica	16239
▁warming	16240
eme	16241
▁nick	16242
用了	16243
▁Baseball	16244
md	16245
返校	16246
▁gate	16247
specific	16248
销量	16249
▁Shah	16250
Update	16251
▁villages	16252
▁Dig	16253
复产	16254
厉害	16255
▁Complete	16256
新华	16257
chron	16258
▁dub	16259
河南省	16260
▁masks	16261
ching	16262
▁VR	16263
ivia	16264
▁tens	16265
▁tire	16266
inda	16267
▁fa	16268
Sty	16269
▁adequate	16270
deg	16271
uds	16272
财经	16273
▁Too	16274
▁Response	16275
▁Flash	16276
▁Soph	16277
▁assured	16278
▁Films	16279
发布的	16280
价比	16281
▁jewelry	16282
▁Graduate	16283
SW	16284
▁Horn	16285
景观	16286
▁Sold	16287
Invest	16288
reck	16289
▁Import	16290
▁ER	16291
▁NE	16292
▁drum	16293
糖尿病	16294
厦门	16295
讲述	16296
nbsp	16297
▁Alice	16298
适量	16299
▁supplied	16300
▁apolog	16301
未来的	16302
白天	16303
▁analys	16304
▁yours	16305
还不	16306
▁yoga	16307
资质	16308
stration	16309
Develop	16310
零售	16311
▁tear	16312
▁sq	16313
rien	16314
earchers	16315
是为了	16316
▁Salv	16317
status	16318
▁teens	16319
▁mold	16320
▁logic	16321
▁prospects	16322
closure	16323
▁Statement	16324
询问	16325
▁oven	16326
▁从	16327
博物馆	16328
▁picks	16329
▁Guid	16330
▁ghost	16331
▁exterior	16332
▁instances	16333
sky	16334
▁acclaimed	16335
addy	16336
▁об	16337
ghai	16338
▁Tourism	16339
▁sporting	16340
▁GM	16341
一定会	16342
复试	16343
IND	16344
协助	16345
▁theft	16346
是由	16347
▁balanced	16348
unit	16349
分局	16350
jud	16351
▁Arn	16352
▁Rou	16353
影视	16354
科普	16355
ecessary	16356
Editor	16357
各大	16358
bery	16359
按摩	16360
遗憾	16361
▁contacted	16362
▁sustained	16363
养成	16364
产品的	16365
▁commented	16366
▁Isa	16367
肌肤	16368
scope	16369
▁placing	16370
有的人	16371
redited	16372
▁realistic	16373
▁Symphony	16374
listed	16375
▁ric	16376
▁drops	16377
▁evolved	16378
castle	16379
▁Putin	16380
▁ox	16381
obb	16382
rolled	16383
▁digit	16384
▁Intel	16385
▁trails	16386
▁Ry	16387
▁не	16388
方位	16389
nal	16390
▁revers	16391
▁Eli	16392
▁bonds	16393
▁nurse	16394
attered	16395
▁Swedish	16396
iov	16397
▁worlds	16398
▁Kaz	16399
Friday	16400
Input	16401
哪怕	16402
定义	16403
▁landed	16404
▁Investig	16405
Buy	16406
生日	16407
▁twin	16408
▁execute	16409
▁motivated	16410
▁suspected	16411
ylum	16412
动画	16413
古代	16414
▁};	16415
▁cig	16416
▁Features	16417
▁Montana	16418
tw	16419
补偿	16420
▁discipl	16421
ONE	16422
生态环境	16423
加拿	16424
▁Var	16425
](	16426
等你	16427
oline	16428
▁UAE	16429
▁та	16430
线索	16431
▁exped	16432
一次性	16433
▁gonna	16434
▁е	16435
▁Zone	16436
简称	16437
责编	16438
▁dependent	16439
ische	16440
▁elderly	16441
▁Hyd	16442
▁arc	16443
▁bust	16444
开了	16445
优秀的	16446
▁backing	16447
▁Born	16448
▁wars	16449
▁nan	16450
▁derived	16451
▁unveiled	16452
赔偿	16453
发病	16454
▁Rav	16455
English	16456
海洋	16457
rica	16458
haw	16459
▁Eye	16460
▁SM	16461
▁Nag	16462
▁Eve	16463
▁""	16464
市长	16465
▁automated	16466
平常	16467
▁Gard	16468
▁Fresh	16469
原理	16470
正确的	16471
青少年	16472
▁paths	16473
医疗机构	16474
▁Easy	16475
▁noting	16476
Param	16477
▁subtle	16478
▁span	16479
验证	16480
▁financ	16481
borne	16482
总会	16483
耐心	16484
spring	16485
▁jet	16486
isco	16487
del	16488
▁Austria	16489
纳税	16490
▁Dra	16491
Among	16492
出于	16493
▁Tu	16494
uto	16495
我们在	16496
原料	16497
cht	16498
▁Cities	16499
▁contacts	16500
携手	16501
▁habits	16502
Elect	16503
Hot	16504
▁blocked	16505
得到了	16506
assert	16507
PI	16508
适用	16509
ective	16510
▁toys	16511
一流	16512
oppers	16513
ARY	16514
卫健	16515
并在	16516
overs	16517
▁Adventure	16518
备案	16519
▁anybody	16520
hell	16521
▁broker	16522
itioners	16523
dict	16524
ilateral	16525
▁Wildlife	16526
▁Johnny	16527
▁portrait	16528
GL	16529
ferred	16530
▁ME	16531
▁Lanc	16532
article	16533
▁tragedy	16534
bank	16535
▁Pic	16536
▁viral	16537
▁$(	16538
▁appl	16539
▁hoped	16540
▁Graph	16541
oots	16542
接着	16543
plates	16544
▁Juan	16545
▁高	16546
的外	16547
▁Into	16548
London	16549
▁Venezuel	16550
▁BB	16551
舞蹈	16552
▁Pin	16553
ushes	16554
▁regarded	16555
▁speeds	16556
师范大学	16557
▁Economy	16558
▁fel	16559
有机	16560
▁shadow	16561
哈尔	16562
▁FO	16563
▁infected	16564
感受到	16565
Pay	16566
▁Garc	16567
体会	16568
Mike	16569
Lead	16570
顾问	16571
▁strikes	16572
体重	16573
undle	16574
免责	16575
引进	16576
▁bulk	16577
特朗	16578
市政府	16579
▁login	16580
▁physics	16581
▁athletic	16582
liminary	16583
公平	16584
精致	16585
▁releasing	16586
▁oxygen	16587
▁trauma	16588
▁Mack	16589
▁winds	16590
Mad	16591
水的	16592
▁stom	16593
▁gaining	16594
IAL	16595
▁plaint	16596
iterranean	16597
总经理	16598
▁Speaker	16599
▁deemed	16600
▁throwing	16601
▁Chile	16602
▁closure	16603
shine	16604
thal	16605
Creat	16606
arms	16607
▁ballot	16608
▁restored	16609
▁intim	16610
化妆	16611
研究院	16612
outing	16613
性价比	16614
▁enemies	16615
ów	16616
地上	16617
争取	16618
▁separated	16619
ellar	16620
▁batteries	16621
▁Movement	16622
▁stroke	16623
▁propri	16624
▁integral	16625
中药	16626
导演	16627
▁grows	16628
▁Tol	16629
关闭	16630
kh	16631
▁Mini	16632
据了解	16633
的第一	16634
▁remarks	16635
大幅	16636
▁vel	16637
▁beating	16638
▁Kirk	16639
▁thirty	16640
食材	16641
什么时候	16642
▁Gabri	16643
eton	16644
抗击	16645
▁torn	16646
Quest	16647
▁delayed	16648
pling	16649
奶奶	16650
▁recovered	16651
Online	16652
Sal	16653
▁accidents	16654
Further	16655
发言	16656
▁fame	16657
仅仅	16658
▁pedest	16659
▁FM	16660
onde	16661
▁Gardens	16662
▁unders	16663
▁precise	16664
▁crop	16665
▁fluid	16666
▁Dynam	16667
▁SUV	16668
▁texture	16669
next	16670
▁END	16671
交叉	16672
舞台	16673
plit	16674
▁GO	16675
▁Oliver	16676
▁Songs	16677
▁coinc	16678
ние	16679
热门	16680
prov	16681
Daniel	16682
gets	16683
▁GB	16684
Richard	16685
牺牲	16686
▁Alberta	16687
▁Watson	16688
你想	16689
▁Hunt	16690
▁Gran	16691
context	16692
▁Category	16693
▁Ronald	16694
erick	16695
春季	16696
货币	16697
profile	16698
的价格	16699
may	16700
要有	16701
)-	16702
▁closest	16703
▁ethical	16704
around	16705
则是	16706
▁:=	16707
我们会	16708
▁Carm	16709
▁superb	16710
凌晨	16711
的老	16712
▁enjoyable	16713
verning	16714
▁WordPress	16715
ews	16716
▁railway	16717
▁Denmark	16718
ooting	16719
损伤	16720
大大	16721
▁Southeast	16722
▁Ka	16723
Still	16724
延长	16725
▁constitu	16726
出席	16727
▁Face	16728
从业	16729
一看	16730
mons	16731
▁zu	16732
粮食	16733
▁ultra	16734
Bi	16735
▁Bab	16736
同一	16737
▁sponsor	16738
▁secrets	16739
eston	16740
Bill	16741
教程	16742
▁Pros	16743
▁copper	16744
▁Nat	16745
档案	16746
中有	16747
▁betting	16748
大数据	16749
▁Richmond	16750
stud	16751
pol	16752
心灵	16753
回归	16754
用人	16755
▁Respons	16756
▁BL	16757
▁photograp	16758
▁forests	16759
▁PO	16760
不对	16761
arios	16762
▁poem	16763
▁Guardian	16764
azy	16765
▁Stanford	16766
▁pursuing	16767
▁tent	16768
▁UI	16769
这份	16770
icker	16771
特朗普	16772
杂志	16773
▁vessel	16774
▁Announces	16775
Mult	16776
▁Ori	16777
mid	16778
▁Karen	16779
utable	16780
▁okay	16781
巨大	16782
不喜欢	16783
▁scratch	16784
▁endless	16785
全新	16786
附属	16787
▁Veterans	16788
暑假	16789
▁Charter	16790
酒精	16791
▁rolled	16792
长江	16793
▁Seven	16794
预算	16795
▁isolated	16796
▁treating	16797
▁impacted	16798
IZ	16799
▁highway	16800
omin	16801
false	16802
电力	16803
Real	16804
▁alien	16805
▁Д	16806
▁Fried	16807
ede	16808
▁Fly	16809
十九	16810
▁HERE	16811
▁brick	16812
House	16813
▁chef	16814
VE	16815
▁grey	16816
Jim	16817
ti	16818
财运	16819
这场	16820
▁fires	16821
income	16822
message	16823
▁Address	16824
▁crossing	16825
▁honors	16826
▁Lions	16827
▁honour	16828
▁boats	16829
重磅	16830
致力	16831
▁nam	16832
▁unclear	16833
Family	16834
uffer	16835
民间	16836
著名	16837
▁pupp	16838
▁Hat	16839
oop	16840
▁McDonald	16841
就诊	16842
▁Qatar	16843
▁Fif	16844
▁opponent	16845
▁quantity	16846
obi	16847
天地	16848
▁Planet	16849
强制	16850
▁Clay	16851
▁threw	16852
小米	16853
利率	16854
Builder	16855
root	16856
▁creator	16857
不行	16858
前行	16859
▁profiles	16860
Ep	16861
▁fier	16862
▁Cyber	16863
▁parish	16864
高质量发展	16865
▁Bristol	16866
ARE	16867
▁Casino	16868
南方	16869
大量的	16870
▁Centers	16871
▁spare	16872
▁Shar	16873
▁Ethiop	16874
▁reson	16875
orph	16876
▁wherever	16877
isely	16878
不易	16879
家族	16880
▁Jeremy	16881
▁Harrison	16882
增值	16883
лу	16884
抓好	16885
assing	16886
▁crim	16887
oat	16888
更高	16889
quiries	16890
区的	16891
多人	16892
written	16893
Stat	16894
▁cous	16895
重症	16896
▁Sha	16897
▁Tell	16898
所谓的	16899
工作者	16900
▁vessels	16901
asures	16902
班主任	16903
▁Glasgow	16904
▁float	16905
▁GP	16906
冬天	16907
▁twist	16908
武器	16909
they	16910
▁HE	16911
暂时	16912
▁stack	16913
bian	16914
Jon	16915
astics	16916
推荐阅读	16917
icating	16918
腾讯	16919
▁Famil	16920
▁Yellow	16921
▁reminder	16922
陌生	16923
老师的	16924
萝卜	16925
▁cir	16926
买了	16927
年纪	16928
对接	16929
▁relate	16930
apper	16931
▁Treatment	16932
而在	16933
▁dash	16934
▁appearing	16935
▁Camb	16936
Students	16937
▁Wine	16938
▁screw	16939
▁Ukrainian	16940
爆料	16941
▁scandal	16942
▁innings	16943
▁fate	16944
responding	16945
________	16946
本质	16947
▁Vari	16948
={	16949
境外输入	16950
当事	16951
受伤	16952
non	16953
Return	16954
Rock	16955
▁Ja	16956
▁Issues	16957
开车	16958
ullivan	16959
▁Releases	16960
▁/*	16961
▁MORE	16962
eto	16963
冬季	16964
门槛	16965
野生	16966
essa	16967
▁balls	16968
▁rush	16969
Sports	16970
▁Sudan	16971
▁silent	16972
▁predicted	16973
га	16974
当下	16975
auer	16976
eda	16977
otta	16978
法治	16979
真心	16980
购房	16981
▁seniors	16982
two	16983
签约	16984
▁от	16985
▁Ridge	16986
ès	16987
也可	16988
想着	16989
常见的	16990
SQL	16991
▁FR	16992
看出	16993
选手	16994
▁safer	16995
▁makeup	16996
高温	16997
erness	16998
▁Advert	16999
试点	17000
块钱	17001
▁prints	17002
▁museums	17003
▁collapse	17004
▁bom	17005
Master	17006
就好	17007
前后	17008
县城	17009
▁Inj	17010
▁freel	17011
▁donate	17012
▁della	17013
▁harmful	17014
▁Thor	17015
ounters	17016
▁Baptist	17017
istle	17018
▁cargo	17019
▁exercises	17020
▁Swift	17021
▁magazines	17022
▁Vincent	17023
▁token	17024
加班	17025
▁silence	17026
▁welcoming	17027
▁Finland	17028
▁scroll	17029
▁underway	17030
▁buzz	17031
ITE	17032
Meet	17033
▁rubber	17034
▁lovers	17035
Bay	17036
braska	17037
▁gradually	17038
lang	17039
▁GA	17040
"),	17041
发票	17042
itual	17043
温馨提示	17044
苏州	17045
严重的	17046
融资	17047
▁Counsel	17048
Pan	17049
▁Several	17050
COVID	17051
▁discusses	17052
举措	17053
Professor	17054
▁Ghost	17055
▁diagram	17056
▁mandatory	17057
▁toilet	17058
证券	17059
话说	17060
的产品	17061
▁cab	17062
大脑	17063
▁ambass	17064
ebook	17065
▁ridic	17066
聘用	17067
▁organised	17068
▁Around	17069
清华	17070
asi	17071
▁Higher	17072
▁mandate	17073
▁bail	17074
▁caf	17075
▁bout	17076
adata	17077
▁tropical	17078
iates	17079
危机	17080
▁manifest	17081
ів	17082
▁Columbus	17083
做事	17084
▁fellows	17085
▁Sweet	17086
Tagged	17087
▁Universe	17088
olesale	17089
一款	17090
▁tears	17091
som	17092
百分	17093
佩戴口罩	17094
疑问	17095
▁awa	17096
ylan	17097
▁sequel	17098
融入	17099
rev	17100
gary	17101
征收	17102
matic	17103
的专业	17104
ANS	17105
ixon	17106
▁replacing	17107
archy	17108
对其	17109
▁advances	17110
将于	17111
▁iter	17112
uart	17113
inge	17114
ussels	17115
▁Sure	17116
▁texts	17117
▁strive	17118
原价	17119
FOR	17120
▁confused	17121
▁dign	17122
▁shore	17123
制品	17124
入境	17125
▁Clinic	17126
▁Coming	17127
▁Emma	17128
▁Fisher	17129
▁Quarter	17130
▁ré	17131
又是	17132
解答	17133
▁Terry	17134
▁bicy	17135
成人	17136
▁analyze	17137
▁scream	17138
乡村振兴	17139
▁Champion	17140
对手	17141
yme	17142
▁Sent	17143
难题	17144
▁Edwards	17145
Frank	17146
一口	17147
▁sleeping	17148
▁amenities	17149
▁Kyle	17150
▁endorse	17151
安置	17152
低头	17153
▁Py	17154
差不多	17155
定的	17156
rod	17157
不大	17158
unts	17159
▁Present	17160
▁Draw	17161
NBC	17162
▁Retail	17163
用心	17164
▁occupied	17165
▁imposed	17166
TT	17167
▁utilize	17168
出台	17169
▁Floor	17170
asa	17171
▁Large	17172
传媒	17173
▁reforms	17174
▁Beauty	17175
对话	17176
▁legally	17177
了吧	17178
▁Maur	17179
zheimer	17180
such	17181
mt	17182
leton	17183
▁chamber	17184
occ	17185
wer	17186
▁accepting	17187
oons	17188
▁Pink	17189
▁metres	17190
▁os	17191
▁mock	17192
说是	17193
Tok	17194
▁Given	17195
妇女	17196
anship	17197
▁resid	17198
▁boasts	17199
▁integrate	17200
不去	17201
▁Pric	17202
▁stressed	17203
uming	17204
▁rocks	17205
要么	17206
将其	17207
夏季	17208
订单	17209
▁rect	17210
Mary	17211
▁juice	17212
竞赛	17213
ategorized	17214
▁Half	17215
▁Len	17216
▁radiation	17217
显著	17218
alph	17219
▁Potter	17220
azed	17221
▁stopping	17222
ograf	17223
Blue	17224
▁Ster	17225
ну	17226
▁exports	17227
又有	17228
frast	17229
ELECT	17230
▁sponsors	17231
▁Circle	17232
George	17233
▁privilege	17234
▁locals	17235
分的	17236
mented	17237
参数	17238
▁recycling	17239
▁reign	17240
dates	17241
▁pizza	17242
ittees	17243
ancers	17244
日的	17245
▁rows	17246
▁outfit	17247
有些人	17248
Sund	17249
Est	17250
ahn	17251
▁Amsterdam	17252
▁GR	17253
ahu	17254
["	17255
抑制	17256
ulator	17257
▁testimony	17258
▁Minor	17259
咱们	17260
Mel	17261
million	17262
幸运	17263
▁opera	17264
主办	17265
▁Panel	17266
学校的	17267
游泳	17268
树立	17269
olitical	17270
几十	17271
Adv	17272
▁SEO	17273
差距	17274
▁advisory	17275
▁Г	17276
招商	17277
Ver	17278
▁Questions	17279
诉讼	17280
orted	17281
▁pets	17282
▁Surv	17283
▁fossil	17284
▁farms	17285
全日	17286
▁dated	17287
淘宝	17288
quare	17289
▁accessed	17290
JP	17291
Being	17292
ielder	17293
▁Flight	17294
家庄	17295
批评	17296
不可能	17297
▁Rogers	17298
▁logistics	17299
▁moderate	17300
Component	17301
▁Standards	17302
▁Berkeley	17303
Dev	17304
ema	17305
▁aging	17306
▁Wor	17307
▁Motors	17308
▁Rodrig	17309
ificent	17310
ancellor	17311
▁Academic	17312
浪漫	17313
▁tender	17314
▁advisor	17315
lia	17316
▁IM	17317
很高	17318
big	17319
▁theat	17320
▁Mental	17321
▁habitat	17322
▁Materials	17323
神秘	17324
阳性	17325
reational	17326
▁Active	17327
一段时间	17328
▁Cuba	17329
human	17330
▁——	17331
必备	17332
▁ESPN	17333
发生了	17334
密切接触者	17335
窗口	17336
结束后	17337
▁wise	17338
artz	17339
▁wrap	17340
▁educate	17341
▁fare	17342
mith	17343
指示	17344
▁ка	17345
帮你	17346
anton	17347
▁MI	17348
▁mothers	17349
ipse	17350
▁Theory	17351
гра	17352
通信	17353
▁surfaces	17354
重要的是	17355
▁dominated	17356
target	17357
Born	17358
感冒	17359
insula	17360
hang	17361
▁Trip	17362
▁Vik	17363
答题	17364
quet	17365
boro	17366
▁fond	17367
▁IBM	17368
▁buyer	17369
▁Interior	17370
▁Legend	17371
▁migrants	17372
▁buses	17373
▁vine	17374
三十	17375
▁refr	17376
▁overlook	17377
经济社会	17378
▁sli	17379
▁sheets	17380
opic	17381
哥哥	17382
▁при	17383
▁chains	17384
HC	17385
▁urgent	17386
psy	17387
▁Si	17388
▁Arc	17389
▁canvas	17390
体的	17391
▁cheer	17392
▁portal	17393
巩固	17394
▁fur	17395
▁Mob	17396
▁Bud	17397
▁nurses	17398
▁witnessed	17399
normal	17400
我们可以	17401
▁Armen	17402
之所以	17403
居然	17404
相关部门	17405
▁survivors	17406
▁meth	17407
▁Concert	17408
疫情期间	17409
▁quit	17410
一样的	17411
etown	17412
交通安全	17413
▁ward	17414
▁annoy	17415
▁pending	17416
应届	17417
▁Fest	17418
▁hence	17419
人人	17420
市区	17421
▁offset	17422
牙齿	17423
hester	17424
▁Gift	17425
{\	17426
merc	17427
均匀	17428
▁Tampa	17429
▁Projects	17430
镜头	17431
▁assisted	17432
的关系	17433
承认	17434
▁amend	17435
▁twelve	17436
Command	17437
进度	17438
▁Feed	17439
forced	17440
▁buttons	17441
癌症	17442
新能源	17443
▁Workers	17444
▁steep	17445
不管是	17446
storm	17447
▁Hillary	17448
形态	17449
身高	17450
▁Indians	17451
前进	17452
ummy	17453
▁inflam	17454
多多	17455
▁Pad	17456
eger	17457
▁sink	17458
▁tel	17459
▁Lawyers	17460
▁во	17461
▁Vel	17462
不久	17463
▁praise	17464
Case	17465
▁interf	17466
icient	17467
▁inquiry	17468
▁Others	17469
警惕	17470
▁advise	17471
家属	17472
uki	17473
upid	17474
他是	17475
▁strain	17476
▁lib	17477
URE	17478
▁harsh	17479
▁Chi	17480
▁footprint	17481
少数	17482
假如	17483
▁Honda	17484
▁revel	17485
IME	17486
▁Prep	17487
▁seal	17488
ometer	17489
佩戴	17490
我会	17491
病情	17492
▁Arctic	17493
▁essays	17494
汇报	17495
nex	17496
▁Ple	17497
▁retreat	17498
▁Mans	17499
所需	17500
出现在	17501
ulent	17502
▁Kil	17503
▁Info	17504
Japan	17505
number	17506
asse	17507
另一个	17508
eyer	17509
听说	17510
▁flaw	17511
▁portable	17512
的同学	17513
▁aviation	17514
输出	17515
iph	17516
▁pond	17517
新城	17518
▁Coffee	17519
▁adapted	17520
namespace	17521
▁gut	17522
▁Oakland	17523
▁Artists	17524
uisine	17525
uba	17526
▁Guys	17527
▁Jama	17528
复工复产	17529
eded	17530
出版社	17531
▁Harvey	17532
му	17533
▁Ni	17534
urst	17535
▁Fer	17536
暴雨	17537
▁Milan	17538
激励	17539
较为	17540
▁Range	17541
图书馆	17542
nity	17543
▁О	17544
▁Cohen	17545
▁Shows	17546
iri	17547
过度	17548
bey	17549
壁纸	17550
▁continent	17551
残疾	17552
本期	17553
▁projected	17554
▁blues	17555
▁receiver	17556
塑料	17557
的肺炎	17558
▁nil	17559
boys	17560
移民	17561
▁wages	17562
▁deserves	17563
Saturday	17564
下方二维码	17565
过年	17566
▁density	17567
▁Shaw	17568
▁volt	17569
▁barg	17570
成的	17571
▁burst	17572
ename	17573
▁Stri	17574
Mil	17575
▁Musical	17576
名为	17577
▁Kash	17578
▁pled	17579
sign	17580
▁partial	17581
国民	17582
怀疑	17583
((	17584
页面	17585
▁reserves	17586
ISH	17587
▁stays	17588
▁weakness	17589
static	17590
▁Brain	17591
▁Horse	17592
▁Plans	17593
▁Nathan	17594
▁regards	17595
▁Coalition	17596
秘密	17597
bad	17598
加拿大	17599
match	17600
▁tags	17601
配备	17602
▁arrives	17603
▁conflicts	17604
▁slide	17605
camp	17606
anga	17607
▁NPR	17608
Earlier	17609
▁Route	17610
Tunes	17611
rise	17612
▁smell	17613
VR	17614
▁bot	17615
▁Grey	17616
助于	17617
▁WA	17618
rapeutic	17619
[...]
